{
  "version": "1.0",
  "truncation": null,
  "padding": null,
  "added_tokens": [
    {
      "id": 0,
      "content": "<pad>",
      "single_word": false,
      "lstrip": false,
      "rstrip": false,
      "normalized": false,
      "special": true
    },
    {
      "id": 1,
      "content": "<unk>",
      "single_word": false,
      "lstrip": false,
      "rstrip": false,
      "normalized": false,
      "special": true
    },
    {
      "id": 2,
      "content": "<bos>",
      "single_word": false,
      "lstrip": false,
      "rstrip": false,
      "normalized": false,
      "special": true
    },
    {
      "id": 3,
      "content": "<eos>",
      "single_word": false,
      "lstrip": false,
      "rstrip": false,
      "normalized": false,
      "special": true
    }
  ],
  "normalizer": null,
  "pre_tokenizer": {
    "type": "ByteLevel",
    "add_prefix_space": true,
    "trim_offsets": true,
    "use_regex": true
  },
  "post_processor": {
    "type": "TemplateProcessing",
    "single": [
      {
        "SpecialToken": {
          "id": "<bos>",
          "type_id": 0
        }
      },
      {
        "Sequence": {
          "id": "A",
          "type_id": 0
        }
      },
      {
        "SpecialToken": {
          "id": "<eos>",
          "type_id": 0
        }
      }
    ],
    "pair": [
      {
        "SpecialToken": {
          "id": "<bos>",
          "type_id": 0
        }
      },
      {
        "Sequence": {
          "id": "A",
          "type_id": 0
        }
      },
      {
        "SpecialToken": {
          "id": "<eos>",
          "type_id": 0
        }
      },
      {
        "Sequence": {
          "id": "B",
          "type_id": 1
        }
      },
      {
        "SpecialToken": {
          "id": "<eos>",
          "type_id": 0
        }
      }
    ],
    "special_tokens": {
      "<bos>": {
        "id": "<bos>",
        "ids": [
          2
        ],
        "tokens": [
          "<bos>"
        ]
      },
      "<eos>": {
        "id": "<eos>",
        "ids": [
          3
        ],
        "tokens": [
          "<eos>"
        ]
      }
    }
  },
  "decoder": {
    "type": "ByteLevel",
    "add_prefix_space": true,
    "trim_offsets": true,
    "use_regex": true
  },
  "model": {
    "type": "BPE",
    "dropout": null,
    "unk_token": "<unk>",
    "continuing_subword_prefix": null,
    "end_of_word_suffix": null,
    "fuse_unk": false,
    "byte_fallback": false,
    "ignore_merges": false,
    "vocab": {
      "<pad>": 0,
      "<unk>": 1,
      "<bos>": 2,
      "<eos>": 3,
      "!": 4,
      "\"": 5,
      "#": 6,
      "$": 7,
      "%": 8,
      "&": 9,
      "'": 10,
      "(": 11,
      ")": 12,
      "*": 13,
      "+": 14,
      ",": 15,
      "-": 16,
      ".": 17,
      "/": 18,
      "0": 19,
      "1": 20,
      "2": 21,
      "3": 22,
      "4": 23,
      "5": 24,
      "6": 25,
      "7": 26,
      "8": 27,
      "9": 28,
      ":": 29,
      ";": 30,
      "<": 31,
      "=": 32,
      ">": 33,
      "?": 34,
      "@": 35,
      "A": 36,
      "B": 37,
      "C": 38,
      "D": 39,
      "E": 40,
      "F": 41,
      "G": 42,
      "H": 43,
      "I": 44,
      "J": 45,
      "K": 46,
      "L": 47,
      "M": 48,
      "N": 49,
      "O": 50,
      "P": 51,
      "Q": 52,
      "R": 53,
      "S": 54,
      "T": 55,
      "U": 56,
      "V": 57,
      "W": 58,
      "X": 59,
      "Y": 60,
      "Z": 61,
      "[": 62,
      "\\": 63,
      "]": 64,
      "^": 65,
      "_": 66,
      "`": 67,
      "a": 68,
      "b": 69,
      "c": 70,
      "d": 71,
      "e": 72,
      "f": 73,
      "g": 74,
      "h": 75,
      "i": 76,
      "j": 77,
      "k": 78,
      "l": 79,
      "m": 80,
      "n": 81,
      "o": 82,
      "p": 83,
      "q": 84,
      "r": 85,
      "s": 86,
      "t": 87,
      "u": 88,
      "v": 89,
      "w": 90,
      "x": 91,
      "y": 92,
      "z": 93,
      "{": 94,
      "|": 95,
      "}": 96,
      "~": 97,
      "¡": 98,
      "¢": 99,
      "£": 100,
      "¤": 101,
      "¥": 102,
      "¦": 103,
      "§": 104,
      "¨": 105,
      "©": 106,
      "ª": 107,
      "«": 108,
      "¬": 109,
      "®": 110,
      "¯": 111,
      "°": 112,
      "±": 113,
      "²": 114,
      "³": 115,
      "´": 116,
      "µ": 117,
      "¶": 118,
      "·": 119,
      "¸": 120,
      "¹": 121,
      "º": 122,
      "»": 123,
      "¼": 124,
      "½": 125,
      "¾": 126,
      "¿": 127,
      "Â": 128,
      "Ã": 129,
      "Ä": 130,
      "Å": 131,
      "Æ": 132,
      "Ç": 133,
      "È": 134,
      "É": 135,
      "Ê": 136,
      "Ë": 137,
      "Ì": 138,
      "Í": 139,
      "Î": 140,
      "Ï": 141,
      "Ð": 142,
      "Ñ": 143,
      "Ò": 144,
      "Ó": 145,
      "Ô": 146,
      "Õ": 147,
      "Ö": 148,
      "×": 149,
      "Ø": 150,
      "Ù": 151,
      "Ú": 152,
      "Û": 153,
      "Ü": 154,
      "Ý": 155,
      "Þ": 156,
      "ß": 157,
      "à": 158,
      "á": 159,
      "â": 160,
      "ã": 161,
      "ä": 162,
      "å": 163,
      "æ": 164,
      "ç": 165,
      "è": 166,
      "é": 167,
      "ê": 168,
      "ë": 169,
      "ì": 170,
      "í": 171,
      "î": 172,
      "ï": 173,
      "ð": 174,
      "ó": 175,
      "Ā": 176,
      "ĉ": 177,
      "Ċ": 178,
      "č": 179,
      "Ġ": 180,
      "Ģ": 181,
      "ģ": 182,
      "Ĥ": 183,
      "ĥ": 184,
      "Ħ": 185,
      "ħ": 186,
      "Ĩ": 187,
      "ĩ": 188,
      "Ī": 189,
      "ī": 190,
      "Ĭ": 191,
      "ĭ": 192,
      "Į": 193,
      "į": 194,
      "İ": 195,
      "ı": 196,
      "Ĳ": 197,
      "ĳ": 198,
      "Ĵ": 199,
      "ĵ": 200,
      "Ķ": 201,
      "ķ": 202,
      "ĸ": 203,
      "Ĺ": 204,
      "ĺ": 205,
      "Ļ": 206,
      "ļ": 207,
      "Ľ": 208,
      "ľ": 209,
      "Ŀ": 210,
      "ŀ": 211,
      "Ł": 212,
      "ł": 213,
      "Ń": 214,
      "Ġd": 215,
      "Ã©": 216,
      "es": 217,
      "Ġl": 218,
      "en": 219,
      "on": 220,
      "čĊ": 221,
      "an": 222,
      "Ġde": 223,
      "Ġp": 224,
      "re": 225,
      "Ġs": 226,
      "ti": 227,
      "er": 228,
      "Ġc": 229,
      "is": 230,
      "in": 231,
      "Ġa": 232,
      "ou": 233,
      "ar": 234,
      "le": 235,
      "qu": 236,
      "et": 237,
      "ent": 238,
      "it": 239,
      "or": 240,
      "Ġla": 241,
      "ĠĠ": 242,
      "Ġm": 243,
      "un": 244,
      "ur": 245,
      "te": 246,
      "il": 247,
      "Ġet": 248,
      "ĠL": 249,
      "tion": 250,
      "ĠÃ": 251,
      "al": 252,
      "om": 253,
      "Ġle": 254,
      "Ġf": 255,
      "ðŁ": 256,
      "Ġ1": 257,
      "ra": 258,
      "Ġt": 259,
      "Ġen": 260,
      "Ã¨": 261,
      "el": 262,
      "ĠC": 263,
      "ĠÃł": 264,
      "Ġ(": 265,
      "ri": 266,
      "ĠðŁ": 267,
      "us": 268,
      "rÃ©": 269,
      "Ġun": 270,
      "Ġdes": 271,
      "Ġn": 272,
      "que": 273,
      "our": 274,
      "ĠS": 275,
      "est": 276,
      "ro": 277,
      "ment": 278,
      "ant": 279,
      "Ġdu": 280,
      "ch": 281,
      "ĠP": 282,
      "ce": 283,
      "ĠM": 284,
      "ie": 285,
      "at": 286,
      "as": 287,
      "Ġ2": 288,
      "ans": 289,
      "Ġv": 290,
      "Ġles": 291,
      "ĠÃ©": 292,
      "au": 293,
      "ĠA": 294,
      "Ġpar": 295,
      "ol": 296,
      "Ġau": 297,
      "me": 298,
      "ne": 299,
      "ont": 300,
      "âĢ": 301,
      "ation": 302,
      "ve": 303,
      "ĠB": 304,
      "Ġest": 305,
      "Ġqu": 306,
      "ĠčĊ": 307,
      "Ġb": 308,
      "ĠD": 309,
      "se": 310,
      "ĠĠĠĠ": 311,
      "de": 312,
      "si": 313,
      "res": 314,
      "ic": 315,
      "ag": 316,
      "ĠR": 317,
      "Ġ19": 318,
      "ai": 319,
      "Ġ20": 320,
      "Ġg": 321,
      "Ã©e": 322,
      "Ġcom": 323,
      "ĠdÃ©": 324,
      "Ġre": 325,
      "am": 326,
      "tÃ©": 327,
      "ĠT": 328,
      "ĠE": 329,
      "ais": 330,
      "Ġdans": 331,
      "ĠI": 332,
      "ĠF": 333,
      "li": 334,
      "ci": 335,
      "ĠG": 336,
      "Ġj": 337,
      "oi": 338,
      "âĢĻ": 339,
      "Ġcon": 340,
      "ĠrÃ©": 341,
      "Ġune": 342,
      "di": 343,
      "ran": 344,
      "ĠÂ": 345,
      "ta": 346,
      "Ġin": 347,
      "Ġpour": 348,
      "Ġse": 349,
      "Ġ*": 350,
      "ul": 351,
      "ot": 352,
      "ĠN": 353,
      "ers": 354,
      "os": 355,
      "Ġch": 356,
      "Ġe": 357,
      "ac": 358,
      "mp": 359,
      "Ġpl": 360,
      "ain": 361,
      "ĠLe": 362,
      "ig": 363,
      "Ġo": 364,
      "ĠJ": 365,
      "Ġsur": 366,
      "ut": 367,
      "ĠH": 368,
      "les": 369,
      "elle": 370,
      "ale": 371,
      "Ġh": 372,
      "ter": 373,
      "pe": 374,
      "itÃ©": 375,
      "Ġpro": 376,
      "og": 377,
      "ff": 378,
      "ab": 379,
      "¸ı": 380,
      "ï¸ı": 381,
      "ux": 382,
      "Ã¨re": 383,
      "ait": 384,
      "Ġqui": 385,
      "--": 386,
      "Ġr": 387,
      "ist": 388,
      "ille": 389,
      "vi": 390,
      "tu": 391,
      "ĠV": 392,
      "Ġil": 393,
      "Ġque": 394,
      "and": 395,
      "op": 396,
      "ces": 397,
      "urs": 398,
      "ue": 399,
      "end": 400,
      "ĠLa": 401,
      "ort": 402,
      "mb": 403,
      "ons": 404,
      "vec": 405,
      "ite": 406,
      "tre": 407,
      "nÃ©": 408,
      "Ãª": 409,
      "ouv": 410,
      "mi": 411,
      "ine": 412,
      "),": 413,
      "ap": 414,
      "ub": 415,
      "ction": 416,
      "ques": 417,
      "ge": 418,
      "Ġavec": 419,
      "ui": 420,
      "Ã¨s": 421,
      "ique": 422,
      "aire": 423,
      "Ġ201": 424,
      "Ġplus": 425,
      "he": 426,
      "ad": 427,
      "ĠIl": 428,
      "Ġson": 429,
      "ous": 430,
      "ien": 431,
      "age": 432,
      "oc": 433,
      "Ã©ri": 434,
      "st": 435,
      "une": 436,
      "ion": 437,
      "00": 438,
      "im": 439,
      "Ġex": 440,
      "la": 441,
      "Ã©s": 442,
      "ois": 443,
      "ĠÂ»": 444,
      "ĠÂ«": 445,
      "Ġdi": 446,
      "pr": 447,
      "Ã©r": 448,
      "ĠEn": 449,
      "Ġan": 450,
      "ĠW": 451,
      "ph": 452,
      "ĠCh": 453,
      "ĠK": 454,
      "Ġâ": 455,
      "Ġcomm": 456,
      "pp": 457,
      ").": 458,
      "ĠĠĠĠĠĠĠĠ": 459,
      "ir": 460,
      "ĠO": 461,
      "um": 462,
      "Ã§": 463,
      "ard": 464,
      "che": 465,
      "th": 466,
      "Ġpr": 467,
      "ing": 468,
      "##": 469,
      "Ġsa": 470,
      "ord": 471,
      "Ġou": 472,
      "ĠprÃ©": 473,
      "Ġav": 474,
      "Ġsu": 475,
      "Ġpas": 476,
      "ure": 477,
      "Ġ200": 478,
      "ill": 479,
      "onn": 480,
      "aux": 481,
      "Ġpe": 482,
      "ĠLes": 483,
      "ĠðŁĵ": 484,
      "ct": 485,
      "id": 486,
      "uis": 487,
      "ors": 488,
      "Ġparti": 489,
      "Ġsont": 490,
      "Ġtr": 491,
      "ob": 492,
      "Ġ18": 493,
      "od": 494,
      "ay": 495,
      "Ġ3": 496,
      "ĠU": 497,
      "ond": 498,
      "ette": 499,
      "ni": 500,
      "Ġce": 501,
      "Ġal": 502,
      "tique": 503,
      "Ġ:": 504,
      "Ġar": 505,
      "Ġ\"": 506,
      "av": 507,
      "oir": 508,
      "entre": 509,
      "**": 510,
      "iÃ¨": 511,
      "Ã´": 512,
      "orm": 513,
      "ĠĠĠ": 514,
      "Ġaux": 515,
      "Ġcomp": 516,
      "ise": 517,
      "ence": 518,
      "nes": 519,
      "Ġtra": 520,
      "Ġnom": 521,
      "teur": 522,
      "ins": 523,
      "Ġra": 524,
      "Ġ**": 525,
      "Ġ{": 526,
      "remi": 527,
      "tin": 528,
      "ib": 529,
      "lÃ©": 530,
      "Ġne": 531,
      "ore": 532,
      "out": 533,
      "du": 534,
      "oire": 535,
      "Ġmar": 536,
      "ĠPar": 537,
      "oy": 538,
      "par": 539,
      "iste": 540,
      "ance": 541,
      "Ã¢": 542,
      "ĠÃ©tÃ©": 543,
      "lle": 544,
      "iv": 545,
      "ru": 546,
      "ations": 547,
      "Ã©es": 548,
      "19": 549,
      "all": 550,
      "Ġte": 551,
      "Ġ##": 552,
      "----": 553,
      "mbre": 554,
      "ens": 555,
      "ert": 556,
      "Ġcomme": 557,
      "ass": 558,
      "Ġses": 559,
      "Ġdeux": 560,
      "Ġac": 561,
      "imp": 562,
      "mes": 563,
      "ier": 564,
      "ĠFran": 565,
      "ĠÃī": 566,
      "Ġ.": 567,
      "Ġpremi": 568,
      "Ġcont": 569,
      "Ġ199": 570,
      "ĠMar": 571,
      "tres": 572,
      "Ã©d": 573,
      "ĠðŁı": 574,
      "Ġ-": 575,
      "tif": 576,
      "rou": 577,
      "tic": 578,
      "ences": 579,
      "raph": 580,
      "ants": 581,
      "Ã©c": 582,
      "sion": 583,
      "Ġcl": 584,
      "Ġ4": 585,
      "ĠAn": 586,
      "amp": 587,
      "erm": 588,
      "ture": 589,
      "ours": 590,
      "Ġmais": 591,
      "Ã©m": 592,
      "ang": 593,
      "ts": 594,
      "tat": 595,
      "ments": 596,
      "Ã©g": 597,
      "rit": 598,
      "Ġmon": 599,
      "Ġ|": 600,
      "sent": 601,
      "ess": 602,
      "tait": 603,
      "ðŁĩ": 604,
      "Ã®": 605,
      "ec": 606,
      "20": 607,
      "ov": 608,
      "fÃ©r": 609,
      "ace": 610,
      "ograph": 611,
      "ron": 612,
      "ĠdÃ©c": 613,
      "oci": 614,
      "lis": 615,
      "Ġ5": 616,
      "Ġentre": 617,
      "ss": 618,
      "tes": 619,
      "tions": 620,
      "ate": 621,
      "alement": 622,
      "Ġapp": 623,
      "Ġfran": 624,
      "ex": 625,
      "ip": 626,
      "ĠAr": 627,
      "tiv": 628,
      "olog": 629,
      "Ġdis": 630,
      "ĠâĢ": 631,
      "Ġelle": 632,
      "ĠgÃ©": 633,
      "prÃ¨s": 634,
      "lic": 635,
      "alis": 636,
      "Ġfait": 637,
      "Ġcar": 638,
      "oin": 639,
      "ĠJe": 640,
      "ĠðŁĩ": 641,
      "ĠDe": 642,
      "bre": 643,
      "eur": 644,
      "Ġcons": 645,
      "Ġju": 646,
      "aires": 647,
      "tive": 648,
      "Ãªme": 649,
      "com": 650,
      "oit": 651,
      "ow": 652,
      "Ġfor": 653,
      "tis": 654,
      "ong": 655,
      "ht": 656,
      "nÃ©es": 657,
      "Ġser": 658,
      "rand": 659,
      "Ã§ais": 660,
      "aint": 661,
      "Ġfin": 662,
      "aine": 663,
      "iens": 664,
      "Ġ}": 665,
      "ussi": 666,
      "aient": 667,
      "po": 668,
      "cip": 669,
      "be": 670,
      "cont": 671,
      "ales": 672,
      "Ã©n": 673,
      "Ġcette": 674,
      "ĠðŁĶ": 675,
      "Ã©ra": 676,
      "Ã©t": 677,
      "ĠðŁĮ": 678,
      "able": 679,
      "Ãł": 680,
      "Ġor": 681,
      "Ġje": 682,
      "if": 683,
      "ĠðŁĴ": 684,
      "Ġ198": 685,
      "ĠAl": 686,
      "rois": 687,
      "ante": 688,
      "Ġma": 689,
      "Ġlui": 690,
      "fÃ©rences": 691,
      "elles": 692,
      "ĠIn": 693,
      "use": 694,
      "ĠrÃ©g": 695,
      "enne": 696,
      "ouve": 697,
      "Ġont": 698,
      "vers": 699,
      "ĠfranÃ§ais": 700,
      "Ġinter": 701,
      "ell": 702,
      "ĠElle": 703,
      "ode": 704,
      "em": 705,
      "Ġcol": 706,
      "igne": 707,
      "ĠðŁİ": 708,
      "Ġst": 709,
      "ĠÃ©g": 710,
      "Ġ202": 711,
      "Ġsous": 712,
      "Ġfil": 713,
      "ia": 714,
      "Ġter": 715,
      "ĠX": 716,
      "Ġof": 717,
      "onne": 718,
      "alitÃ©": 719,
      "itu": 720,
      "ĠÃ©c": 721,
      "Ġti": 722,
      "Ġme": 723,
      "iss": 724,
      "Ġaussi": 725,
      "Ġ6": 726,
      "cle": 727,
      "ĠFrance": 728,
      "ma": 729,
      "ographie": 730,
      "uti": 731,
      "oli": 732,
      "ici": 733,
      "Ġpub": 734,
      "ĠCom": 735,
      "lement": 736,
      "Ġy": 737,
      "uer": 738,
      "Ġ197": 739,
      "..": 740,
      "Ã©v": 741,
      "oÃ": 742,
      "Ġ9": 743,
      "ĠðŁĹ": 744,
      "up": 745,
      "ich": 746,
      "ĠÃ©tait": 747,
      "ole": 748,
      "Ġam": 749,
      "Ġes": 750,
      "Ġ17": 751,
      "ven": 752,
      "sid": 753,
      "ann": 754,
      "ĠsiÃ¨": 755,
      "Ġimp": 756,
      "uv": 757,
      "Ġk": 758,
      "iques": 759,
      "18": 760,
      "tiques": 761,
      "ĠNot": 762,
      "Ġno": 763,
      "mar": 764,
      "form": 765,
      "ps": 766,
      "cl": 767,
      "tr": 768,
      "Ãī": 769,
      "are": 770,
      "Ġat": 771,
      "ton": 772,
      "Ġ0": 773,
      "ĠY": 774,
      "ouver": 775,
      "ĠÃ©t": 776,
      "ath": 777,
      "Ġ=": 778,
      "Ã©tÃ©": 779,
      "âĢį": 780,
      "Ġleur": 781,
      "Ã¹": 782,
      "min": 783,
      "=\"": 784,
      "ourn": 785,
      "Ġpuis": 786,
      "lan": 787,
      "Åĵ": 788,
      "ith": 789,
      "Ġfut": 790,
      "ak": 791,
      "endant": 792,
      "Ġtout": 793,
      "Ġsp": 794,
      "ver": 795,
      "tra": 796,
      "Ġ7": 797,
      "ble": 798,
      "Ġmil": 799,
      "ĠoÃ¹": 800,
      "Ġprin": 801,
      "ages": 802,
      "ire": 803,
      "ĠgÃ©nÃ©": 804,
      "ten": 805,
      "insi": 806,
      "Ġlors": 807,
      "ĠQ": 808,
      "ĠmÃªme": 809,
      "ĠÃ©galement": 810,
      "Ġpers": 811,
      "vis": 812,
      "Ã¨res": 813,
      "Ġcommun": 814,
      "ĠSaint": 815,
      "Ġthe": 816,
      "Ġdont": 817,
      "ari": 818,
      "Ġrec": 819,
      "Ġche": 820,
      "ĠParis": 821,
      "Ġexter": 822,
      "ĠRe": 823,
      "ud": 824,
      "ser": 825,
      "man": 826,
      "Ġ8": 827,
      "Ġob": 828,
      "ï¸ı,": 829,
      "Ġad": 830,
      "orte": 831,
      "pl": 832,
      "Ġcou": 833,
      "ĠNotes": 834,
      "Ġ<": 835,
      "Ġro": 836,
      "Ġ196": 837,
      "fin": 838,
      "Ġ%": 839,
      "ieu": 840,
      "ris": 841,
      "ĠRÃ©": 842,
      "ĠðŁĳ": 843,
      "puis": 844,
      "II": 845,
      "ase": 846,
      "Ġcommune": 847,
      "oute": 848,
      "lÃ¨": 849,
      "Ġdiff": 850,
      "tit": 851,
      "Ġdon": 852,
      "ĠUn": 853,
      "agne": 854,
      "ents": 855,
      "ures": 856,
      "ĠnÃ©": 857,
      "ĠÂ»,": 858,
      "utilis": 859,
      "Ġjus": 860,
      "emp": 861,
      "ĠCe": 862,
      "ign": 863,
      "Ġpos": 864,
      "Ġmin": 865,
      "Ġph": 866,
      "ric": 867,
      "ĠLiens": 868,
      "Ġsc": 869,
      "olu": 870,
      "ern": 871,
      "Ġtrois": 872,
      "asse": 873,
      "Ġth": 874,
      "ĠcrÃ©": 875,
      "Ġexternes": 876,
      "ug": 877,
      "ays": 878,
      "ix": 879,
      "cc": 880,
      "aut": 881,
      "ĠCar": 882,
      "Ġres": 883,
      "riv": 884,
      "--------": 885,
      "Ġans": 886,
      "ĠÃª": 887,
      "Ġtrans": 888,
      "Ġainsi": 889,
      "ĠaprÃ¨s": 890,
      "Ã©rie": 891,
      "one": 892,
      "Ġsy": 893,
      "enti": 894,
      "rib": 895,
      "Ġmo": 896,
      "ĠThe": 897,
      "Ġsec": 898,
      "Ġrep": 899,
      "Ã©di": 900,
      "istoire": 901,
      "its": 902,
      "cher": 903,
      "Ġmus": 904,
      "Ã¯": 905,
      "ĠrÃ©fÃ©rences": 906,
      "Ġnombre": 907,
      "Ġnation": 908,
      "des": 909,
      "Ġ16": 910,
      "tail": 911,
      "Ġtemp": 912,
      "va": 913,
      "titu": 914,
      "ĠĠĠĠĠĠĠ": 915,
      "Ġ194": 916,
      "aison": 917,
      "Ġder": 918,
      "ĠJean": 919,
      "ĠâĢĶ": 920,
      "az": 921,
      "ĠÃªtre": 922,
      "Ġjou": 923,
      "ĠTh": 924,
      "rig": 925,
      "ĠPor": 926,
      "Ġ15": 927,
      "Ġsitu": 928,
      "Ġoff": 929,
      "ense": 930,
      "vier": 931,
      "Ġ10": 932,
      "ges": 933,
      "Ġnot": 934,
      "tement": 935,
      "Ġpremier": 936,
      "ues": 937,
      "jet": 938,
      "ieurs": 939,
      "Ġperm": 940,
      "Ġâľ": 941,
      "ret": 942,
      "ctions": 943,
      "Ġcontre": 944,
      "gl": 945,
      "teurs": 946,
      "roupe": 947,
      "lin": 948,
      "Ġalors": 949,
      "ik": 950,
      "lig": 951,
      "ata": 952,
      "ĠZ": 953,
      "Ġpeut": 954,
      "content": 955,
      "erg": 956,
      "Ġ#": 957,
      "rent": 958,
      "ĠsiÃ¨cle": 959,
      "Ġgrand": 960,
      "Ġon": 961,
      "eau": 962,
      "nement": 963,
      "Ġaut": 964,
      "iÃ¨me": 965,
      "ï¸ı.": 966,
      "qui": 967,
      "Ġ195": 968,
      "anis": 969,
      "><": 970,
      "els": 971,
      "rie": 972,
      "ies": 973,
      "Ġsou": 974,
      "ĠdÃ©b": 975,
      "stru": 976,
      "Ã©ric": 977,
      "agn": 978,
      "ĠJo": 979,
      "ĠpremiÃ¨re": 980,
      "Ġren": 981,
      "ral": 982,
      "ach": 983,
      "000": 984,
      ");": 985,
      "Ġces": 986,
      "ption": 987,
      "ampion": 988,
      "Ġpartie": 989,
      "Ġprop": 990,
      "ze": 991,
      "tats": 992,
      "Ġpoli": 993,
      "Ġsep": 994,
      "Ġpersonn": 995,
      "Ġrela": 996,
      "ente": 997,
      "Ġann": 998,
      ",.": 999,
      "per": 1000,
      "):": 1001,
      "ame": 1002,
      "ĠÃĢ": 1003,
      "uli": 1004,
      "Ġsoci": 1005,
      "oÃ»": 1006,
      "ĠðŁ§": 1007,
      "Ġper": 1008,
      "ats": 1009,
      "ĠCl": 1010,
      "Ġman": 1011,
      "Ġutilis": 1012,
      "Ġville": 1013,
      "istor": 1014,
      "ry": 1015,
      "Ġw": 1016,
      "ĠPortail": 1017,
      "art": 1018,
      "Ġab": 1019,
      "ines": 1020,
      "IS": 1021,
      "Ġvers": 1022,
      "fi": 1023,
      "int": 1024,
      "Ġsans": 1025,
      "ĠðŁļ": 1026,
      "ĠÃ©v": 1027,
      "cien": 1028,
      "ok": 1029,
      "Ġprincip": 1030,
      "Ġprodu": 1031,
      "Ġesp": 1032,
      "rop": 1033,
      "arg": 1034,
      "Ã©lÃ©": 1035,
      "Ã¨me": 1036,
      "ĠÃ©p": 1037,
      "mand": 1038,
      "itÃ©s": 1039,
      "ĠðŁĹĵ": 1040,
      "ĠannÃ©es": 1041,
      "uerre": 1042,
      "Ġdepuis": 1043,
      "this": 1044,
      "vel": 1045,
      "ĠCon": 1046,
      "ĠprÃ©sent": 1047,
      "ils": 1048,
      "Ġcour": 1049,
      "Ġplusieurs": 1050,
      "anc": 1051,
      "Ġdire": 1052,
      "ĠNe": 1053,
      "Ġprof": 1054,
      "vant": 1055,
      "//": 1056,
      "riÃ¨re": 1057,
      "Ġ193": 1058,
      "Ġhom": 1059,
      "tives": 1060,
      "Ġcor": 1061,
      "Ġfam": 1062,
      "ĠAu": 1063,
      "ches": 1064,
      "oul": 1065,
      "Ġform": 1066,
      "Ġand": 1067,
      "illet": 1068,
      "âĢįðŁ": 1069,
      "fore": 1070,
      "Ġeff": 1071,
      "Ġjusqu": 1072,
      "Ġcap": 1073,
      "Ġâļ": 1074,
      "Ġligne": 1075,
      "elon": 1076,
      "ĠMa": 1077,
      "ieux": 1078,
      "ĠPro": 1079,
      "Ġremp": 1080,
      "Ġconn": 1081,
      "10": 1082,
      "rier": 1083,
      "erta": 1084,
      "Ġ12": 1085,
      "sition": 1086,
      "nd": 1087,
      "ĠÃ©le": 1088,
      "Ġmod": 1089,
      "ĠÂ».": 1090,
      "Ã©p": 1091,
      "ĠdÃ©p": 1092,
      "ĠSt": 1093,
      "ĠDans": 1094,
      "ed": 1095,
      "ĠQu": 1096,
      "17": 1097,
      "Ġ###": 1098,
      "Ġass": 1099,
      "ĠĠĠĠĠĠĠĠĠĠĠĠĠĠĠĠ": 1100,
      "ĠðŁĵħ": 1101,
      "anvier": 1102,
      "Ãªte": 1103,
      "before": 1104,
      "sp": 1105,
      "Ġavait": 1106,
      "Un": 1107,
      "Ġderni": 1108,
      "Ã©rÃ©": 1109,
      "Ġbien": 1110,
      "Ġavant": 1111,
      "illes": 1112,
      "erie": 1113,
      "lu": 1114,
      "ellement": 1115,
      "aul": 1116,
      "Ġsui": 1117,
      "ind": 1118,
      "Ġgroupe": 1119,
      "ĠCette": 1120,
      "amment": 1121,
      "lex": 1122,
      "tab": 1123,
      "Ġjanvier": 1124,
      "ype": 1125,
      "su": 1126,
      "opul": 1127,
      "Ġmai": 1128,
      "cons": 1129,
      "Ġpermet": 1130,
      "Ġmort": 1131,
      "Ã¨ne": 1132,
      "ack": 1133,
      "app": 1134,
      "Ġnouv": 1135,
      "Ġcin": 1136,
      "oÃ»t": 1137,
      "tel": 1138,
      "Ġ14": 1139,
      "Ġpo": 1140,
      "nation": 1141,
      "px": 1142,
      "\",": 1143,
      "esse": 1144,
      "mÃ©e": 1145,
      "rÃ©sent": 1146,
      "yle": 1147,
      "Ġmonde": 1148,
      "ade": 1149,
      "ril": 1150,
      "Ġmat": 1151,
      "Ġlong": 1152,
      "Ġfilm": 1153,
      "Ġfois": 1154,
      "ule": 1155,
      "aÃ®": 1156,
      "Ġacc": 1157,
      "15": 1158,
      "enn": 1159,
      "Ġexp": 1160,
      "nex": 1161,
      "onde": 1162,
      "Ġent": 1163,
      "\";": 1164,
      "ide": 1165,
      "ĠSh": 1166,
      "ĠrÃ©p": 1167,
      "cri": 1168,
      "Ġpays": 1169,
      "yn": 1170,
      "lique": 1171,
      "Ġ[": 1172,
      "Ġenc": 1173,
      "ĠUne": 1174,
      "Ġri": 1175,
      "ock": 1176,
      "vient": 1177,
      "quipe": 1178,
      "ĠrÃ©gion": 1179,
      "mÃ©": 1180,
      "ĠtrÃ¨s": 1181,
      "essour": 1182,
      "Ġfond": 1183,
      "obre": 1184,
      "In": 1185,
      "mis": 1186,
      "cembre": 1187,
      "Ġconc": 1188,
      "Ġhab": 1189,
      "tembre": 1190,
      "endre": 1191,
      "ĠPh": 1192,
      "tÃ©s": 1193,
      "Ġjuin": 1194,
      "lay": 1195,
      "Ġsol": 1196,
      "ck": 1197,
      "oot": 1198,
      "ive": 1199,
      "ologie": 1200,
      "Ġ13": 1201,
      "://": 1202,
      "Ġ\"\\": 1203,
      "uss": 1204,
      "Ġvol": 1205,
      "ĠrÃ©alis": 1206,
      "ateur": 1207,
      "ĠRessour": 1208,
      "rande": 1209,
      "fic": 1210,
      "ĠDes": 1211,
      "Ġconf": 1212,
      "Ġjuillet": 1213,
      "ature": 1214,
      "mer": 1215,
      "ler": 1216,
      "Ġmars": 1217,
      "Ġvie": 1218,
      "ah": 1219,
      "atri": 1220,
      "ierre": 1221,
      "ĠdÃ©cembre": 1222,
      "Ã´le": 1223,
      "Ġmont": 1224,
      "ust": 1225,
      "Ġpopul": 1226,
      "ĠBi": 1227,
      "ast": 1228,
      "Ġoct": 1229,
      "Ġseptembre": 1230,
      "htt": 1231,
      "uit": 1232,
      "ribu": 1233,
      "ĠsÃ©": 1234,
      "Ġpoin": 1235,
      "12": 1236,
      "lo": 1237,
      "gra": 1238,
      "Ġret": 1239,
      "Ġcel": 1240,
      "Ġtemps": 1241,
      "Ġnouve": 1242,
      "vembre": 1243,
      "ĠdÃ©par": 1244,
      "cess": 1245,
      "Ġtrava": 1246,
      "16": 1247,
      "ĠSe": 1248,
      "rer": 1249,
      "Ġĉ": 1250,
      "Ġsi": 1251,
      "14": 1252,
      "Ġfem": 1253,
      "ticle": 1254,
      "Ġto": 1255,
      "land": 1256,
      "BN": 1257,
      "Ġplace": 1258,
      "pes": 1259,
      "ithub": 1260,
      "Ġcan": 1261,
      "ĠChar": 1262,
      "co": 1263,
      "Ġdro": 1264,
      "ori": 1265,
      "Ġnovembre": 1266,
      "Ġnotamment": 1267,
      "ĠamÃ©ric": 1268,
      "Ġoctobre": 1269,
      "Ġquel": 1270,
      "https": 1271,
      "gn": 1272,
      "velop": 1273,
      "rom": 1274,
      "rix": 1275,
      "tionn": 1276,
      "Ġdom": 1277,
      "Ar": 1278,
      "amb": 1279,
      "ortant": 1280,
      "Ġ000": 1281,
      "ae": 1282,
      "je": 1283,
      "Ġvis": 1284,
      "oph": 1285,
      "ball": 1286,
      "Ġleurs": 1287,
      "An": 1288,
      "Ġver": 1289,
      "ISBN": 1290,
      "rÃ©e": 1291,
      "ati": 1292,
      "ĠPour": 1293,
      "Ġfamille": 1294,
      "ĠreprÃ©sent": 1295,
      "ãĢ": 1296,
      "ĠmÃ©": 1297,
      "dis": 1298,
      "val": 1299,
      "avi": 1300,
      "Ġaff": 1301,
      "sh": 1302,
      "Ġvi": 1303,
      "ains": 1304,
      "Ġz": 1305,
      "Ġtous": 1306,
      "78": 1307,
      "Ġavril": 1308,
      "ampionn": 1309,
      "line": 1310,
      "ganis": 1311,
      "Ġloc": 1312,
      "Ġ$": 1313,
      "Ġcerta": 1314,
      "mble": 1315,
      "ulture": 1316,
      "ĠdiffÃ©r": 1317,
      "pt": 1318,
      "Ġfon": 1319,
      "iti": 1320,
      "Ġas": 1321,
      "ivers": 1322,
      "Ã©ci": 1323,
      "Ġconstru": 1324,
      "ict": 1325,
      "orti": 1326,
      "ultÃ©": 1327,
      "ls": 1328,
      "Ġautres": 1329,
      "ĠMont": 1330,
      "Ġlib": 1331,
      "ves": 1332,
      "ane": 1333,
      "ĠSon": 1334,
      "Ġpart": 1335,
      "alle": 1336,
      "mo": 1337,
      "ĠOn": 1338,
      "eb": 1339,
      "Ã©vrier": 1340,
      "chÃ©": 1341,
      "viron": 1342,
      "Ġfaire": 1343,
      "ose": 1344,
      "ĠaoÃ»t": 1345,
      "atre": 1346,
      "omb": 1347,
      "Ġmal": 1348,
      "Ġavoir": 1349,
      "13": 1350,
      "uel": 1351,
      "ĠÃītats": 1352,
      "ft": 1353,
      "ĠdÃ©f": 1354,
      "ĠdÃ©velop": 1355,
      "uses": 1356,
      "Ġpolitique": 1357,
      "Ġ`": 1358,
      "assi": 1359,
      "Ġkm": 1360,
      "Ġtour": 1361,
      "urn": 1362,
      "unction": 1363,
      "ions": 1364,
      "ĠðŁ¤": 1365,
      "Ġoffici": 1366,
      "vin": 1367,
      "){": 1368,
      "ĠpÃ©ri": 1369,
      "Ġnon": 1370,
      "Ġrapp": 1371,
      "ĠfÃ©vrier": 1372,
      "Ġ192": 1373,
      "==": 1374,
      "Ġpublic": 1375,
      "&&": 1376,
      "istes": 1377,
      "Åĵuv": 1378,
      "aiss": 1379,
      "ity": 1380,
      "olution": 1381,
      "ros": 1382,
      "Ġsaison": 1383,
      "vent": 1384,
      "ĠÃ©tu": 1385,
      "ys": 1386,
      "Ġcent": 1387,
      "Ġpass": 1388,
      "ĠrÃ©s": 1389,
      "...": 1390,
      "cul": 1391,
      "Ġcours": 1392,
      "voir": 1393,
      "ĠMe": 1394,
      "ress": 1395,
      "Ġencore": 1396,
      "Ġmoins": 1397,
      "ĠsÃ©rie": 1398,
      "chn": 1399,
      "Ã©b": 1400,
      "ĠlÃ©g": 1401,
      "hn": 1402,
      "arch": 1403,
      "ourg": 1404,
      "ĠðŁĽ": 1405,
      "ĠCol": 1406,
      "ĠprÃ©sid": 1407,
      "aille": 1408,
      "io": 1409,
      "ĠgÃ©nÃ©ral": 1410,
      "ienne": 1411,
      "ites": 1412,
      "Ãªtre": 1413,
      "ital": 1414,
      "ope": 1415,
      "ĠâĢĵ": 1416,
      "Ġgouver": 1417,
      "Ġhabit": 1418,
      "Ġclass": 1419,
      "ĠGu": 1420,
      "ĠfranÃ§aise": 1421,
      "Ġrom": 1422,
      "ï¼": 1423,
      "80": 1424,
      "Ġco": 1425,
      "ĠdÃ©but": 1426,
      "ĠMus": 1427,
      "Ġbas": 1428,
      "to": 1429,
      "ĠprÃ©c": 1430,
      "ĠAprÃ¨s": 1431,
      "rÃ©s": 1432,
      "Ġim": 1433,
      "Ġag": 1434,
      "isse": 1435,
      "Ġfa": 1436,
      "lie": 1437,
      "Ġsud": 1438,
      "ger": 1439,
      "ĠspÃ©ci": 1440,
      "Unis": 1441,
      "ile": 1442,
      "Ã¨tres": 1443,
      "ome": 1444,
      "ke": 1445,
      "Ġsuite": 1446,
      "ĠLou": 1447,
      "nexes": 1448,
      "Ġop": 1449,
      "Ġ+": 1450,
      "aque": 1451,
      "oth": 1452,
      "ĠBar": 1453,
      "50": 1454,
      "uc": 1455,
      "Ġ2015": 1456,
      "Ġlieu": 1457,
      "ticles": 1458,
      "ight": 1459,
      "Ġnouveau": 1460,
      "ĠðŁĶ¹": 1461,
      "Ã©ration": 1462,
      "ration": 1463,
      "Ġtitre": 1464,
      "urant": 1465,
      "ĠSa": 1466,
      "ibli": 1467,
      "bum": 1468,
      "lection": 1469,
      "vice": 1470,
      "ĠcÃ´": 1471,
      "Ġmis": 1472,
      "Ġsoit": 1473,
      "ouvent": 1474,
      "aines": 1475,
      "tier": 1476,
      "ly": 1477,
      "Ġrest": 1478,
      "Ġins": 1479,
      "ki": 1480,
      "itaire": 1481,
      "Ġ/": 1482,
      "Ġguerre": 1483,
      "Ġ2010": 1484,
      "antes": 1485,
      "Ġ'": 1486,
      "con": 1487,
      "Ġnord": 1488,
      "Ġpartir": 1489,
      "col": 1490,
      "ĠGe": 1491,
      "Al": 1492,
      "Ã©nÃ©": 1493,
      "vision": 1494,
      "ox": 1495,
      "ande": 1496,
      "ĠtÃ©lÃ©": 1497,
      "Ġfer": 1498,
      "Ġinternation": 1499,
      "ditions": 1500,
      "rique": 1501,
      "Ġpeu": 1502,
      "Ġappar": 1503,
      "Ġmen": 1504,
      "ances": 1505,
      "arge": 1506,
      "lise": 1507,
      "Ġtou": 1508,
      "ting": 1509,
      "illi": 1510,
      "(\"": 1511,
      "Ã¡": 1512,
      "pec": 1513,
      "autres": 1514,
      "Ġemp": 1515,
      "cid": 1516,
      "aÃ¯": 1517,
      "cÃ©": 1518,
      "eu": 1519,
      "200": 1520,
      "cent": 1521,
      "ian": 1522,
      "Ġsorti": 1523,
      "seau": 1524,
      "Ġcompos": 1525,
      "Ġgrande": 1526,
      "ash": 1527,
      "rage": 1528,
      "Ġmoy": 1529,
      "Ġinf": 1530,
      "rÃª": 1531,
      "Ġselon": 1532,
      "pris": 1533,
      "eng": 1534,
      "Ġdist": 1535,
      "Ġpouv": 1536,
      "Ġpubli": 1537,
      "11": 1538,
      "25": 1539,
      "ĠVoir": 1540,
      "function": 1541,
      "ange": 1542,
      "Ġgra": 1543,
      "Ġ&": 1544,
      "Ġils": 1545,
      "Ġclub": 1546,
      "tant": 1547,
      "enant": 1548,
      "port": 1549,
      "ĠCor": 1550,
      "Ġpendant": 1551,
      "ars": 1552,
      "Ġdou": 1553,
      "Ġorig": 1554,
      "Ġquatre": 1555,
      "Ġterrit": 1556,
      "ĠthÃ©": 1557,
      "tiÃ¨re": 1558,
      "sions": 1559,
      "lus": 1560,
      "rain": 1561,
      "Ġhistor": 1562,
      "play": 1563,
      "ĠCou": 1564,
      "cou": 1565,
      "adi": 1566,
      "aise": 1567,
      "Ġsite": 1568,
      "Ã¢te": 1569,
      "Ġ2018": 1570,
      "ĠListe": 1571,
      "Ġ2014": 1572,
      "},": 1573,
      "cture": 1574,
      "vÃ©": 1575,
      "ison": 1576,
      "ĠRÃ©fÃ©rences": 1577,
      "Ġvill": 1578,
      "rÃ¨s": 1579,
      "ĠdÃ©partement": 1580,
      "urent": 1581,
      "position": 1582,
      "act": 1583,
      "rd": 1584,
      "Ġ30": 1585,
      "cteur": 1586,
      "yp": 1587,
      "Ġouv": 1588,
      "Ġangl": 1589,
      "></": 1590,
      "ĠMich": 1591,
      "idth": 1592,
      "Ġdevient": 1593,
      "ork": 1594,
      "ument": 1595,
      "ĠAd": 1596,
      "ĠintÃ©": 1597,
      "Ġ2013": 1598,
      "suite": 1599,
      "Ġ2020": 1600,
      "bar": 1601,
      "Ġind": 1602,
      "ilitÃ©": 1603,
      "âĢ¯": 1604,
      "ðŁĩ·": 1605,
      "Ġ2011": 1606,
      "Ġmet": 1607,
      "mat": 1608,
      "Ġenf": 1609,
      "Ġ2016": 1610,
      "oix": 1611,
      "rait": 1612,
      "Ġliv": 1613,
      "Ġ25": 1614,
      "ition": 1615,
      "Ġnouvelle": 1616,
      "minist": 1617,
      "ĠHistoire": 1618,
      "ĠCan": 1619,
      "ĠespÃ¨": 1620,
      "Ġ2012": 1621,
      "Ġmilli": 1622,
      "ĠRob": 1623,
      "tex": 1624,
      "ĠMon": 1625,
      "Ġ--": 1626,
      "ets": 1627,
      "aud": 1628,
      "Ġsyst": 1629,
      "iter": 1630,
      "Ġcri": 1631,
      "ony": 1632,
      "Ġcas": 1633,
      "Ġmondi": 1634,
      "ĠĠĠĠĠĠĠĠĠĠĠ": 1635,
      "Ġ2017": 1636,
      "tifs": 1637,
      "ouse": 1638,
      "Ġcli": 1639,
      "ourd": 1640,
      "Ġindi": 1641,
      "ili": 1642,
      "nivers": 1643,
      "ĠNew": 1644,
      "ĠBiographie": 1645,
      "âĢįâ": 1646,
      "Ġ11": 1647,
      "Ġtant": 1648,
      "Ġnational": 1649,
      "aw": 1650,
      "son": 1651,
      "Ġpres": 1652,
      "Ġfr": 1653,
      "ll": 1654,
      "oires": 1655,
      "tient": 1656,
      "ĠXV": 1657,
      "fois": 1658,
      "ĠSch": 1659,
      "ĠÃ©qu": 1660,
      "Ġnature": 1661,
      "for": 1662,
      "rale": 1663,
      "Ġtoute": 1664,
      "ime": 1665,
      "gin": 1666,
      "ä¸": 1667,
      "isme": 1668,
      "Ġalle": 1669,
      "alie": 1670,
      "Ġdisp": 1671,
      "Ġ2007": 1672,
      "Ġ2008": 1673,
      "cription": 1674,
      "ĠBe": 1675,
      "Ġcomb": 1676,
      "entes": 1677,
      "Ġvous": 1678,
      "Ġ190": 1679,
      "lace": 1680,
      "Ġautre": 1681,
      "Ġfonction": 1682,
      "istre": 1683,
      "ĠdonnÃ©es": 1684,
      "Ġ2009": 1685,
      "Ġmeille": 1686,
      "Ġrelative": 1687,
      "Ġjour": 1688,
      "consultÃ©": 1689,
      "Ġpol": 1690,
      "Ġdit": 1691,
      "aume": 1692,
      "temp": 1693,
      "occ": 1694,
      "Ã¨rent": 1695,
      "Ġcelui": 1696,
      "Ãītat": 1697,
      "Ġdonc": 1698,
      "ice": 1699,
      "Ġpor": 1700,
      "oles": 1701,
      "Ġmatch": 1702,
      "Ġ24": 1703,
      "Ġca": 1704,
      "Ġpartic": 1705,
      "ras": 1706,
      "Ġmes": 1707,
      "yant": 1708,
      "Ġ2019": 1709,
      "pendant": 1710,
      "ĠArticles": 1711,
      "sionn": 1712,
      "ables": 1713,
      "urop": 1714,
      "rai": 1715,
      "Ġsub": 1716,
      "ĠAnd": 1717,
      "Ġconstitu": 1718,
      "ĠJohn": 1719,
      "ical": 1720,
      "Ġcelle": 1721,
      "Ġfils": 1722,
      "ateurs": 1723,
      "Ġnous": 1724,
      "comp": 1725,
      "ampionnat": 1726,
      "img": 1727,
      "Ġquelques": 1728,
      "Ġpeti": 1729,
      "urope": 1730,
      "Ġparticuli": 1731,
      "ĠsituÃ©e": 1732,
      "ĠdÃ©m": 1733,
      "Ġplan": 1734,
      "Ġgr": 1735,
      "Ġliste": 1736,
      "Ġ2022": 1737,
      "we": 1738,
      "emple": 1739,
      "off": 1740,
      "rag": 1741,
      "Ġport": 1742,
      "onom": 1743,
      "Ġrecher": 1744,
      "Ġtechn": 1745,
      "Ġhabitants": 1746,
      "Ġdoc": 1747,
      "Ġsupp": 1748,
      "ick": 1749,
      "Ġchef": 1750,
      "org": 1751,
      "Ġfl": 1752,
      "acc": 1753,
      "ĠPe": 1754,
      "Ġappel": 1755,
      "Ġli": 1756,
      "}}": 1757,
      "ĠBr": 1758,
      "Ã©ma": 1759,
      "Ġgar": 1760,
      "Ġjourn": 1761,
      "ĠðŁĹĵï¸ı": 1762,
      "ilm": 1763,
      "Ġlit": 1764,
      "ĠðŁĵľ": 1765,
      "Ã©li": 1766,
      "der": 1767,
      "Ġconnexes": 1768,
      "han": 1769,
      "display": 1770,
      "Ã³": 1771,
      "ĠPierre": 1772,
      "ĠLouis": 1773,
      "Ġreg": 1774,
      "unic": 1775,
      "oris": 1776,
      "Ġis": 1777,
      "let": 1778,
      "Ġrelatives": 1779,
      "ootball": 1780,
      "Ã¨le": 1781,
      "dition": 1782,
      "Ġorigin": 1783,
      "iles": 1784,
      "Ġnationale": 1785,
      "Ġlang": 1786,
      "ĉĉ": 1787,
      "rin": 1788,
      "att": 1789,
      "esp": 1790,
      "poque": 1791,
      "Ie": 1792,
      "ĠrÃ´le": 1793,
      "histoire": 1794,
      "ax": 1795,
      "reg": 1796,
      "Ġrou": 1797,
      "Ġchez": 1798,
      "ÃŃ": 1799,
      "Ġtot": 1800,
      "21": 1801,
      "Ã»": 1802,
      "Ġdeven": 1803,
      "iel": 1804,
      "Ã¢teau": 1805,
      "Ġprojet": 1806,
      "Ġmusique": 1807,
      "omm": 1808,
      "ĠpÃ©riode": 1809,
      "ĠEx": 1810,
      "ner": 1811,
      "Ġconsid": 1812,
      "Ġ189": 1813,
      "ones": 1814,
      "ote": 1815,
      "oie": 1816,
      "var": 1817,
      "ĠMan": 1818,
      "ĠÃ©taient": 1819,
      "actÃ©": 1820,
      "alif": 1821,
      "ĠRessources": 1822,
      "Ġnive": 1823,
      "Ã¼": 1824,
      "nav": 1825,
      "omme": 1826,
      "cs": 1827,
      "Ġ2006": 1828,
      "ĠPal": 1829,
      "apon": 1830,
      "iÃ¨re": 1831,
      "width": 1832,
      "orig": 1833,
      "Ġensuite": 1834,
      "Ġid": 1835,
      "Ġ2000": 1836,
      "Ġforme": 1837,
      "Ġrencont": 1838,
      "Ġparticip": 1839,
      "Ġgouvernement": 1840,
      "ĠBibli": 1841,
      "Ġcir": 1842,
      "Ġvillage": 1843,
      "Ġjours": 1844,
      "oud": 1845,
      "ĠsociÃ©tÃ©": 1846,
      "join": 1847,
      "Ġtard": 1848,
      "ative": 1849,
      "----------------": 1850,
      "ĠGrand": 1851,
      "Ġsecond": 1852,
      "Ġcommunes": 1853,
      "Ã§ois": 1854,
      "air": 1855,
      "jours": 1856,
      "ĠMal": 1857,
      "lles": 1858,
      "Ġ23": 1859,
      "Ġcontin": 1860,
      "Â°": 1861,
      "mon": 1862,
      "Ġ22": 1863,
      "Ġconse": 1864,
      "Ġsuiv": 1865,
      "Ġtrouve": 1866,
      "Ã¨de": 1867,
      "aur": 1868,
      "mande": 1869,
      "tern": 1870,
      "Ġbase": 1871,
      "Ġ978": 1872,
      "ennes": 1873,
      "uropÃ©": 1874,
      "mbl": 1875,
      "Ã¢tre": 1876,
      "ĠCes": 1877,
      "ĠðŁ¥": 1878,
      "Åĵur": 1879,
      "Ã´t": 1880,
      "anti": 1881,
      "64": 1882,
      "Ġroi": 1883,
      "ka": 1884,
      "ĠJac": 1885,
      "ĠSer": 1886,
      "Ġbut": 1887,
      "ĠpÃ¨re": 1888,
      "ĠreÃ§": 1889,
      "ules": 1890,
      "Ġorganis": 1891,
      "Ġpopulation": 1892,
      "ĠSc": 1893,
      "Ġbar": 1894,
      "âĢ¦": 1895,
      "ott": 1896,
      "ĠBel": 1897,
      "hui": 1898,
      "rant": 1899,
      "github": 1900,
      "Ġdernier": 1901,
      "Ġcamp": 1902,
      "ĠIls": 1903,
      "Ã©quipe": 1904,
      "Ġdev": 1905,
      "30": 1906,
      "Ġ---": 1907,
      "ĠdeuxiÃ¨me": 1908,
      "Ġhomme": 1909,
      "Ġiss": 1910,
      "aff": 1911,
      "66": 1912,
      "Ġtourn": 1913,
      "aliste": 1914,
      "quer": 1915,
      "ĠprÃ¨s": 1916,
      "Ġlim": 1917,
      "Ġcompr": 1918,
      "Ġanglais": 1919,
      "ĠTr": 1920,
      "Ġjoue": 1921,
      "Ġsucc": 1922,
      "Ġmois": 1923,
      "gle": 1924,
      "Ġservice": 1925,
      "ĠdÃ©veloppe": 1926,
      "ĠprÃ©sident": 1927,
      "ĠÅĵuv": 1928,
      "Ġimport": 1929,
      "«ðŁĩ·": 1930,
      "Ġcat": 1931,
      "ost": 1932,
      "add": 1933,
      "iment": 1934,
      "af": 1935,
      "ication": 1936,
      "ĠnÃ©cess": 1937,
      "duction": 1938,
      "annÃ©e": 1939,
      "Ġenviron": 1940,
      "serv": 1941,
      "199": 1942,
      "ĠDis": 1943,
      "Ġ2005": 1944,
      "iller": 1945,
      "'s": 1946,
      "quÃ©": 1947,
      "Ã¢ti": 1948,
      "ĠDi": 1949,
      "ina": 1950,
      "Ġâľ¨": 1951,
      "rice": 1952,
      "inf": 1953,
      "ada": 1954,
      "60": 1955,
      "ĠðŁķ": 1956,
      "dio": 1957,
      "Ġatt": 1958,
      "70": 1959,
      "intÃ©": 1960,
      "Ġcoll": 1961,
      "Ġocc": 1962,
      "Ġgen": 1963,
      "uvent": 1964,
      "urb": 1965,
      "ĠSp": 1966,
      "Ġclasse": 1967,
      "Ġ{\\": 1968,
      "Ġculture": 1969,
      "çļ": 1970,
      "ĠCharles": 1971,
      "inter": 1972,
      "ĠLors": 1973,
      "ĠHe": 1974,
      "ĠII": 1975,
      "Ġsouvent": 1976,
      "Ġ;": 1977,
      "ĠBer": 1978,
      "auv": 1979,
      "iers": 1980,
      "çļĦ": 1981,
      "ĠPaul": 1982,
      "%;": 1983,
      "ĠamÃ©ricain": 1984,
      "enir": 1985,
      "odes": 1986,
      "ĠdÃ©s": 1987,
      "ĠmÃ©d": 1988,
      "old": 1989,
      "Ġcentre": 1990,
      "ards": 1991,
      "Ã¨te": 1992,
      "cep": 1993,
      "Ġbi": 1994,
      "Ġrap": 1995,
      "ana": 1996,
      "mbres": 1997,
      "Ġdess": 1998,
      "ĠeuropÃ©": 1999,
      "rieur": 2000,
      "Ġconser": 2001,
      "aÃ®t": 2002,
      "Ġtoujours": 2003,
      "Ġtravers": 2004,
      "ception": 2005,
      "Ġjeu": 2006,
      "Ġ2021": 2007,
      "Ã©ti": 2008,
      "Ġlog": 2009,
      "by": 2010,
      "Ġface": 2011,
      "ices": 2012,
      "Ġcad": 2013,
      "ĠSoci": 2014,
      "Ġpeuvent": 2015,
      "aute": 2016,
      "ãĢģ": 2017,
      "ĠdÃ©si": 2018,
      "Ġprob": 2019,
      "usion": 2020,
      "Ġinc": 2021,
      "actÃ©ris": 2022,
      "ĠCet": 2023,
      "ĠðŁĩ«ðŁĩ·": 2024,
      "Ġpersonnes": 2025,
      "Ġnombreux": 2026,
      "âĢĵ": 2027,
      "Ġchaque": 2028,
      "pose": 2029,
      "alitÃ©s": 2030,
      "Ġ2004": 2031,
      "ĠĠĠĠĠ": 2032,
      "ĠComp": 2033,
      "aissance": 2034,
      "style": 2035,
      "Ġcontra": 2036,
      "grÃ©": 2037,
      "ĠMais": 2038,
      "alog": 2039,
      "Ġrapport": 2040,
      "ute": 2041,
      "Ġbeau": 2042,
      "Ã©ro": 2043,
      "bles": 2044,
      "Ġess": 2045,
      "pro": 2046,
      "Ġrue": 2047,
      "unicip": 2048,
      "Ġsig": 2049,
      "ĠNord": 2050,
      "origine": 2051,
      "Ġcal": 2052,
      "Ġpoint": 2053,
      "estion": 2054,
      "ira": 2055,
      "Ġporte": 2056,
      "Ch": 2057,
      "anci": 2058,
      "return": 2059,
      "ĠannÃ©e": 2060,
      "Ġ28": 2061,
      "Ġayant": 2062,
      "ĠHen": 2063,
      "Ġvit": 2064,
      "Ġcommer": 2065,
      "ĠAb": 2066,
      "Ġtoutes": 2067,
      "ĠRoy": 2068,
      "sc": 2069,
      "ĠBl": 2070,
      "tien": 2071,
      "Ġcompte": 2072,
      "eux": 2073,
      "24": 2074,
      "Ġterm": 2075,
      "raÃ®": 2076,
      "Ġfemme": 2077,
      "ville": 2078,
      "Ġ21": 2079,
      "titul": 2080,
      "ordre": 2081,
      "ĠFl": 2082,
      "jourd": 2083,
      "yd": 2084,
      "âĢįâĻ": 2085,
      "Xe": 2086,
      "urg": 2087,
      "vaux": 2088,
      "Ġprom": 2089,
      "ames": 2090,
      "ĠðŁ¤Ŀ": 2091,
      "ĠsituÃ©": 2092,
      "Ã©l": 2093,
      "ĠAm": 2094,
      "Ġmaj": 2095,
      "era": 2096,
      "prise": 2097,
      "ĠTe": 2098,
      "Ġcoup": 2099,
      "ĠmÃ©t": 2100,
      "Ġsimp": 2101,
      "exp": 2102,
      "Ġdonn": 2103,
      "Ġpein": 2104,
      "ouest": 2105,
      "Ġinst": 2106,
      "unes": 2107,
      "uire": 2108,
      "oss": 2109,
      "Ġcy": 2110,
      "Ġsup": 2111,
      "ï¸ıðŁ": 2112,
      "ĠÃ©tant": 2113,
      "gne": 2114,
      "own": 2115,
      "ĠVal": 2116,
      "Ġstyle": 2117,
      "Ġintitul": 2118,
      "Ã¨se": 2119,
      "Ġterritoire": 2120,
      "Ġcinq": 2121,
      "usse": 2122,
      "Ġ188": 2123,
      "Ġ26": 2124,
      "ologique": 2125,
      "ĠÃ©lect": 2126,
      "Ġafin": 2127,
      "Ġtu": 2128,
      "Ġcro": 2129,
      "Ġaur": 2130,
      "ha": 2131,
      "ini": 2132,
      "33": 2133,
      "inÃ©": 2134,
      "Ġrend": 2135,
      "ĠSte": 2136,
      "Ġarticle": 2137,
      "Ġroy": 2138,
      "Ġ2023": 2139,
      "ult": 2140,
      "ource": 2141,
      "âĢįðŁĳ": 2142,
      "Ġ27": 2143,
      "Ġquar": 2144,
      "Ġprend": 2145,
      "rang": 2146,
      "ĠPhil": 2147,
      "Ġproduction": 2148,
      "Ġreste": 2149,
      "ĠsystÃ¨me": 2150,
      "ĠRobert": 2151,
      "ara": 2152,
      "Ġreconn": 2153,
      "\">": 2154,
      "ĠCons": 2155,
      "ĠâĽ": 2156,
      "ĠRen": 2157,
      "ĠÐ": 2158,
      "iz": 2159,
      "ld": 2160,
      "Ġmise": 2161,
      "hell": 2162,
      "Ã¢ce": 2163,
      "Ġniveau": 2164,
      "Ġcet": 2165,
      "ref": 2166,
      "ĠrÃ©seau": 2167,
      "ĠðŁ§ĳ": 2168,
      "ĠÃ©quip": 2169,
      "ley": 2170,
      "ĠGen": 2171,
      "Ġvoy": 2172,
      "autÃ©": 2173,
      "ĠRo": 2174,
      "enc": 2175,
      "ĠGeor": 2176,
      "Ã¨rement": 2177,
      "Ġfais": 2178,
      "Ã¶": 2179,
      "alisation": 2180,
      "Ã©tait": 2181,
      "Ã©qu": 2182,
      "Ġref": 2183,
      "Ġprovin": 2184,
      "uf": 2185,
      "Ġ1999": 2186,
      "Ġtravail": 2187,
      "rim": 2188,
      "40": 2189,
      "Ġseul": 2190,
      "oly": 2191,
      "Ġâı": 2192,
      "Ġchans": 2193,
      "Ġmag": 2194,
      "sta": 2195,
      "ĠSal": 2196,
      "ĠðŁıĨ": 2197,
      "gram": 2198,
      "erre": 2199,
      "ĠðŁıĽ": 2200,
      "ĠSur": 2201,
      "ĠSud": 2202,
      "ĠÃ©pis": 2203,
      "ĠChe": 2204,
      "Ġmembres": 2205,
      "ĠbÃ¢ti": 2206,
      "dia": 2207,
      "Ġap": 2208,
      "Ġ100": 2209,
      "Ġprix": 2210,
      "Ġbata": 2211,
      "Ġdoit": 2212,
      "Ġense": 2213,
      "</": 2214,
      "quel": 2215,
      "Ġdroit": 2216,
      "Ġjeune": 2217,
      "ĠtÃªte": 2218,
      "cident": 2219,
      "ĠBibliographie": 2220,
      "Fran": 2221,
      "Ġmunicip": 2222,
      "bert": 2223,
      "ĠÃ©crit": 2224,
      "Ġmari": 2225,
      "ĠRessource": 2226,
      "tru": 2227,
      "Ġcapit": 2228,
      "ĠGr": 2229,
      "Ġtype": 2230,
      "Ġrel": 2231,
      "Ġallemand": 2232,
      "ĠAll": 2233,
      "ĠTra": 2234,
      "ysi": 2235,
      "uments": 2236,
      "Ġtex": 2237,
      "sible": 2238,
      "ribution": 2239,
      "23": 2240,
      "ĠðŁĹĵï¸ı,": 2241,
      "Ġatte": 2242,
      "Ġbou": 2243,
      "Ã©cur": 2244,
      "yl": 2245,
      "ublique": 2246,
      "ulti": 2247,
      "ĠnommÃ©": 2248,
      "ica": 2249,
      "Ġ29": 2250,
      "over": 2251,
      "ĠFranÃ§ois": 2252,
      "Ġ</": 2253,
      "fÃ©rence": 2254,
      "cte": 2255,
      "ĠFin": 2256,
      "](": 2257,
      "rid": 2258,
      "ĠIs": 2259,
      "Ġmembre": 2260,
      "Ġmondiale": 2261,
      "ĠðŁĮį": 2262,
      "lier": 2263,
      "Ġparc": 2264,
      "tÃ©ra": 2265,
      "ĠcarriÃ¨re": 2266,
      "Ã§on": 2267,
      "Ġhommes": 2268,
      "ĠdÃ©fin": 2269,
      "Ġmot": 2270,
      "Mar": 2271,
      "Ġpris": 2272,
      "ĠGuerre": 2273,
      "ennent": 2274,
      "Ġ@": 2275,
      "cipe": 2276,
      "Ġ2003": 2277,
      "top": 2278,
      "oration": 2279,
      "Ġ2002": 2280,
      "Ġrev": 2281,
      "ĠPremi": 2282,
      "orn": 2283,
      "ĠSite": 2284,
      "Åį": 2285,
      "duit": 2286,
      "Ġofficiel": 2287,
      "ĠÃ©ch": 2288,
      "Ġfille": 2289,
      "erne": 2290,
      "Ġ2024": 2291,
      "ĠespÃ¨ce": 2292,
      "row": 2293,
      "Ġposs": 2294,
      "nÃ©s": 2295,
      "Ġvari": 2296,
      "Ġmaison": 2297,
      "ĠEd": 2298,
      "Ġnum": 2299,
      "ĠTour": 2300,
      "ĠPrix": 2301,
      "mdi": 2302,
      "Ġrecherche": 2303,
      "ĠCoupe": 2304,
      "Ġvoit": 2305,
      "xim": 2306,
      "ociation": 2307,
      "leur": 2308,
      "75": 2309,
      "Ġ2001": 2310,
      "oll": 2311,
      "Ġsein": 2312,
      "ams": 2313,
      "ĠXI": 2314,
      "idÃ©": 2315,
      "ĠrÃ©v": 2316,
      "Ġcorps": 2317,
      "erc": 2318,
      "ĠHar": 2319,
      "Ġmouve": 2320,
      "ĠÃ©tab": 2321,
      "ĠdÃ©couv": 2322,
      "ary": 2323,
      "ĠprÃ©sente": 2324,
      "prÃ©": 2325,
      "ï¸ıâ": 2326,
      "Ġdurant": 2327,
      "Ġexemple": 2328,
      "ĠscÃ¨ne": 2329,
      "Ġpouvoir": 2330,
      "Ġital": 2331,
      "ĠMo": 2332,
      "tent": 2333,
      "ĠHistor": 2334,
      "Ġraison": 2335,
      "ĠÃ©quipe": 2336,
      "ogithub": 2337,
      "hellogithub": 2338,
      "ano": 2339,
      "ĠGal": 2340,
      "ources": 2341,
      "Ġbat": 2342,
      "univers": 2343,
      "Ġactu": 2344,
      "rich": 2345,
      "ĠmÃ¨tres": 2346,
      "Ġincl": 2347,
      "Ġtrou": 2348,
      "div": 2349,
      "Ġfort": 2350,
      "Ã©rique": 2351,
      "ĠðŁĵį": 2352,
      "sur": 2353,
      "Ġancien": 2354,
      "Ã¨mes": 2355,
      "ĠRÃ©p": 2356,
      "oun": 2357,
      "ĠðŁĵļ": 2358,
      "22": 2359,
      "lg": 2360,
      "Ġprofes": 2361,
      "ark": 2362,
      "andis": 2363,
      "Ġannon": 2364,
      "mÃªme": 2365,
      "margin": 2366,
      "Ã©glise": 2367,
      "mont": 2368,
      "Ġ1990": 2369,
      "Ġblan": 2370,
      "Ġvict": 2371,
      "ĠAc": 2372,
      "Ġbrit": 2373,
      "Ġhum": 2374,
      "yth": 2375,
      "tiste": 2376,
      "ĠInter": 2377,
      ".,": 2378,
      "Ġsal": 2379,
      "Ġ1998": 2380,
      "Ġall": 2381,
      "igue": 2382,
      "Ġfemmes": 2383,
      "ĠchÃ¢teau": 2384,
      "ĠAut": 2385,
      "ĠCo": 2386,
      "Ġsix": 2387,
      "Ã©lÃ¨": 2388,
      "ï¼Į": 2389,
      "estiv": 2390,
      "Ġpra": 2391,
      "da": 2392,
      "ĠDan": 2393,
      "rist": 2394,
      "``": 2395,
      "article": 2396,
      "ty": 2397,
      "Ġversion": 2398,
      "armÃ©e": 2399,
      "Ġauteurs": 2400,
      "ublic": 2401,
      "dÃ©": 2402,
      "ĠSi": 2403,
      "Ġcommand": 2404,
      "osÃ©": 2405,
      "oise": 2406,
      "Ġenfants": 2407,
      "ĠSec": 2408,
      "))": 2409,
      "aces": 2410,
      "Ġlarge": 2411,
      "utÃ©": 2412,
      "get": 2413,
      "Ġbr": 2414,
      "quelle": 2415,
      "Ġmarqu": 2416,
      "ĠrÃ©c": 2417,
      "na": 2418,
      "Ġretour": 2419,
      "Ġ```": 2420,
      "navbar": 2421,
      "Ġpriv": 2422,
      "duc": 2423,
      "Ġrelig": 2424,
      "Ġ!": 2425,
      "lÃ©ment": 2426,
      "vo": 2427,
      "lect": 2428,
      "enu": 2429,
      "action": 2430,
      "Ã©ch": 2431,
      "mission": 2432,
      "Ġi": 2433,
      "Ġroute": 2434,
      "ression": 2435,
      "tivitÃ©": 2436,
      "ĠdÃ©veloppement": 2437,
      "ĠSu": 2438,
      "ible": 2439,
      "magne": 2440,
      "red": 2441,
      "eures": 2442,
      "ied": 2443,
      "Ġadminist": 2444,
      "ĠintitulÃ©": 2445,
      "_{": 2446,
      "Ġ50": 2447,
      "Ġserv": 2448,
      "Ġdivers": 2449,
      "log": 2450,
      "displaystyle": 2451,
      "ĠOr": 2452,
      "Ġeffec": 2453,
      "eta": 2454,
      "crit": 2455,
      "ŃĲ": 2456,
      "ĠSta": 2457,
      "Ġchar": 2458,
      "Ġlaquelle": 2459,
      "Cl": 2460,
      "Ġcertains": 2461,
      "ision": 2462,
      "Ġbe": 2463,
      "ĠĠĠĠĠĠĠĠĠĠĠĠĠĠĠ": 2464,
      "left": 2465,
      "autre": 2466,
      "ĠtroisiÃ¨me": 2467,
      "Ġalbum": 2468,
      "Ġeffet": 2469,
      "ĠdÃ¨s": 2470,
      "orie": 2471,
      "user": 2472,
      "Ġcontr": 2473,
      "ĠDÃ©": 2474,
      "Ã©min": 2475,
      "ĠMarie": 2476,
      "sement": 2477,
      "ĠFilm": 2478,
      "68": 2479,
      "Ġpremiers": 2480,
      "90": 2481,
      "ende": 2482,
      "ĠpiÃ¨": 2483,
      "ĠSelon": 2484,
      "ĠJacques": 2485,
      "Ġmoi": 2486,
      "ĠYork": 2487,
      "estival": 2488,
      "Ġanci": 2489,
      "Ġsera": 2490,
      "oma": 2491,
      "Ġdevant": 2492,
      "ĠðŁĵħ,": 2493,
      "Ġquit": 2494,
      "Ġrapide": 2495,
      "Ġatta": 2496,
      "Ġpetit": 2497,
      "ura": 2498,
      "ĠÃ©conom": 2499,
      "talie": 2500,
      "Ġmillions": 2501,
      "Ġsign": 2502,
      "ĠPer": 2503,
      "||": 2504,
      "Ġministre": 2505,
      "Ġrejoin": 2506,
      "ĠGra": 2507,
      "order": 2508,
      "right": 2509,
      "ĠGÃ©": 2510,
      "Ġfig": 2511,
      "Ġjam": 2512,
      "Ġviv": 2513,
      "ĠFor": 2514,
      "gu": 2515,
      "ĠgÃ©nÃ©ra": 2516,
      "tie": 2517,
      "],": 2518,
      "annique": 2519,
      "ĠðŁĲ": 2520,
      "llemagne": 2521,
      "28": 2522,
      "ĠEl": 2523,
      "Ġmilitaire": 2524,
      "Ã©dia": 2525,
      "45": 2526,
      "dec": 2527,
      "ey": 2528,
      "of": 2529,
      "grou": 2530,
      "Ġseu": 2531,
      "height": 2532,
      "Ġjoueur": 2533,
      "jÃł": 2534,
      "65": 2535,
      "Ġunivers": 2536,
      "Ġfinale": 2537,
      "Ġva": 2538,
      "Ġhe": 2539,
      "*,": 2540,
      "oÃ¯": 2541,
      "Ġplu": 2542,
      "ĠsuccÃ¨s": 2543,
      "ĠgrÃ¢ce": 2544,
      "oritÃ©": 2545,
      "ĠmaÃ®": 2546,
      "omp": 2547,
      "Le": 2548,
      "Ġceux": 2549,
      "face": 2550,
      "Ġmm": 2551,
      "Ġposte": 2552,
      "ission": 2553,
      "coup": 2554,
      "chi": 2555,
      "Ġcath": 2556,
      "ĠrÃ©sul": 2557,
      "ms": 2558,
      "Ġcher": 2559,
      "29": 2560,
      "ĠðŁĳĳ": 2561,
      "ĠBen": 2562,
      "',": 2563,
      "gique": 2564,
      "uk": 2565,
      "sence": 2566,
      "eff": 2567,
      "Ġphot": 2568,
      "resp": 2569,
      "uve": 2570,
      "Ġchampionnat": 2571,
      "35": 2572,
      "Ġlongue": 2573,
      "ĠcaractÃ©ris": 2574,
      "._": 2575,
      "ham": 2576,
      "niques": 2577,
      "fa": 2578,
      "fs": 2579,
      "Ġprofessionn": 2580,
      "Ã¤": 2581,
      "aster": 2582,
      "Ġpoints": 2583,
      "Ġissu": 2584,
      "vie": 2585,
      "ĠðŁĽ¡": 2586,
      "ĠMarc": 2587,
      "ĠÃ©d": 2588,
      "asion": 2589,
      "198": 2590,
      "prises": 2591,
      "Ġprogram": 2592,
      "reur": 2593,
      "Ġfootball": 2594,
      "fr": 2595,
      "urÃ©": 2596,
      "Ã©cu": 2597,
      "Europe": 2598,
      "aly": 2599,
      "urÃ©e": 2600,
      "asc": 2601,
      "rap": 2602,
      "ĠðŁ§ĳâĢįðŁ": 2603,
      "anton": 2604,
      "issement": 2605,
      "Ġint": 2606,
      "SS": 2607,
      "ĠLib": 2608,
      "Ġproc": 2609,
      "berg": 2610,
      "ĠmÃ¨re": 2611,
      "Ġnombreuses": 2612,
      "Ġfont": 2613,
      "Ġtable": 2614,
      "ald": 2615,
      "ĠPl": 2616,
      "Ġconst": 2617,
      "ĠfrÃ©": 2618,
      "trans": 2619,
      "\":": 2620,
      "ãĥ": 2621,
      "Ġconstruction": 2622,
      "Ġni": 2623,
      "uelle": 2624,
      "ull": 2625,
      "Ã©on": 2626,
      "itaires": 2627,
      "ĠDu": 2628,
      "aprÃ¨s": 2629,
      "Ġpropri": 2630,
      "ĠComm": 2631,
      "ĠcrÃ©ation": 2632,
      "Ġroman": 2633,
      "ĠutilisÃ©": 2634,
      "Ġarch": 2635,
      "Ġmom": 2636,
      "ĠAlex": 2637,
      "ĠdÃ©jÃł": 2638,
      "ĠcÃ´tÃ©": 2639,
      "ĠPays": 2640,
      "ĠCependant": 2641,
      "rir": 2642,
      "Ġmer": 2643,
      "ient": 2644,
      "viÃ¨re": 2645,
      "ĠâĿ": 2646,
      "eth": 2647,
      "Â«": 2648,
      "ĠNation": 2649,
      "lick": 2650,
      "tics": 2651,
      "Ġpasse": 2652,
      "Ġconnu": 2653,
      "jec": 2654,
      "voy": 2655,
      "Ġjamais": 2656,
      "Ġlet": 2657,
      "Ã¨que": 2658,
      "Ġchem": 2659,
      "ĠLu": 2660,
      "nom": 2661,
      "ĠlittÃ©ra": 2662,
      "Ð°": 2663,
      "].": 2664,
      "orld": 2665,
      "Ġâľħ": 2666,
      "Ġaujourd": 2667,
      "tist": 2668,
      "Ġmain": 2669,
      "utes": 2670,
      "ĠMichel": 2671,
      "Ġqualif": 2672,
      "Ã©poque": 2673,
      "ĠrÃ©alisÃ©": 2674,
      "ĠSan": 2675,
      "illon": 2676,
      "39": 2677,
      "ĠWik": 2678,
      "bourg": 2679,
      "ĠEt": 2680,
      "mique": 2681,
      "Ġexpl": 2682,
      "ood": 2683,
      "ĠRou": 2684,
      "ĠLond": 2685,
      "aj": 2686,
      "Ã©curitÃ©": 2687,
      "Ġ1997": 2688,
      "neur": 2689,
      "48": 2690,
      "icons": 2691,
      "ðŁĩª": 2692,
      "Ġord": 2693,
      "ĠdÃ©cl": 2694,
      "Ġauc": 2695,
      "Ã¨nes": 2696,
      "Ġmusic": 2697,
      "auteur": 2698,
      "ĠWilli": 2699,
      "ela": 2700,
      "Ġ185": 2701,
      "Ġviol": 2702,
      "ocra": 2703,
      "cad": 2704,
      "Ġfac": 2705,
      "ustr": 2706,
      "ĠðŁĳ¨": 2707,
      "Ġanim": 2708,
      "Ġbois": 2709,
      "Ġinternational": 2710,
      "agit": 2711,
      "aude": 2712,
      "ĠJeux": 2713,
      "sive": 2714,
      "Ġimportant": 2715,
      "38": 2716,
      "lande": 2717,
      "Ġsci": 2718,
      "time": 2719,
      "ĠBou": 2720,
      "table": 2721,
      "Ġcolon": 2722,
      "Ġfurent": 2723,
      "tim": 2724,
      "Ġformation": 2725,
      "eter": 2726,
      "ĠSociÃ©tÃ©": 2727,
      "ographique": 2728,
      "ild": 2729,
      "Ġcadre": 2730,
      "ĠVer": 2731,
      "Ã©tique": 2732,
      "aye": 2733,
      "text": 2734,
      "ä»": 2735,
      "rec": 2736,
      "Ġsuivant": 2737,
      "less": 2738,
      "Ġdirection": 2739,
      "Ã©tu": 2740,
      "ault": 2741,
      "ER": 2742,
      "ainte": 2743,
      "27": 2744,
      "tor": 2745,
      "avant": 2746,
      "ĠCat": 2747,
      "ovie": 2748,
      "ĠTrans": 2749,
      "ĠBern": 2750,
      "rict": 2751,
      "ĠMor": 2752,
      "Ġtandis": 2753,
      "ung": 2754,
      "sy": 2755,
      "ĠðŁĮŁ": 2756,
      "rite": 2757,
      "ca": 2758,
      "atab": 2759,
      "Ġval": 2760,
      "37": 2761,
      "atoire": 2762,
      "ĠðŁļĢ": 2763,
      "()": 2764,
      "Ġâı³": 2765,
      "Ġunique": 2766,
      "Ð¾": 2767,
      "formation": 2768,
      "ĠÅ": 2769,
      "inst": 2770,
      "ĠCas": 2771,
      "Ġpartiellement": 2772,
      "ĠBo": 2773,
      "illeurs": 2774,
      "Ġ1996": 2775,
      "ĠMad": 2776,
      "ĠRich": 2777,
      "ĠGi": 2778,
      "estre": 2779,
      "ĠGar": 2780,
      "vre": 2781,
      "ĠRÃ©publique": 2782,
      "oign": 2783,
      "Ã¨ve": 2784,
      "åı": 2785,
      "pect": 2786,
      "Ġfeu": 2787,
      "ovi": 2788,
      "ouss": 2789,
      "ination": 2790,
      "ouverte": 2791,
      "temps": 2792,
      "Ġseulement": 2793,
      "ĠDavi": 2794,
      "Ġsigni": 2795,
      "sse": 2796,
      "Ġpa": 2797,
      "antÃ©": 2798,
      "ardin": 2799,
      "ĠpubliÃ©": 2800,
      "Ġvoix": 2801,
      "lac": 2802,
      "ĠrÃ¨": 2803,
      "Ġgenre": 2804,
      "Ġeu": 2805,
      "niversitÃ©": 2806,
      "Ġ187": 2807,
      "Ġdivision": 2808,
      "ĠdiffÃ©rents": 2809,
      "Ġbritannique": 2810,
      "Ġcela": 2811,
      "Or": 2812,
      "my": 2813,
      "Ġelles": 2814,
      "Ġlivre": 2815,
      "iteur": 2816,
      "67": 2817,
      "Ġdemi": 2818,
      "ĠJose": 2819,
      "Ġbon": 2820,
      "ĠtotalitÃ©": 2821,
      "Ġtrop": 2822,
      "Ġmilieu": 2823,
      "fe": 2824,
      "Ġloi": 2825,
      "universitÃ©": 2826,
      "agnie": 2827,
      "Ġsport": 2828,
      "**,": 2829,
      "auche": 2830,
      "Ġchap": 2831,
      "ĠPlus": 2832,
      "otte": 2833,
      "ĠÃ©tudes": 2834,
      "ĠCanada": 2835,
      "ory": 2836,
      "ĠConse": 2837,
      "ora": 2838,
      "met": 2839,
      "ĠCour": 2840,
      "atabase": 2841,
      "ĠmaniÃ¨re": 2842,
      "Ġstat": 2843,
      "ario": 2844,
      "back": 2845,
      "ĠRec": 2846,
      "rÃªt": 2847,
      "ront": 2848,
      "Ġrencontre": 2849,
      "Ġprovince": 2850,
      "Ġ>": 2851,
      "Ã©mie": 2852,
      "ĠðŁĵĪ": 2853,
      "Ġbeaucoup": 2854,
      "gment": 2855,
      "ĠNic": 2856,
      "Ġpuiss": 2857,
      "ject": 2858,
      "Ġve": 2859,
      "matique": 2860,
      "Ġobten": 2861,
      "ãĢĤ": 2862,
      "ulaire": 2863,
      "lit": 2864,
      "hi": 2865,
      "Ġ179": 2866,
      "ĠCentre": 2867,
      "ber": 2868,
      "Ġcommence": 2869,
      "ĠCap": 2870,
      "Ġresp": 2871,
      "assin": 2872,
      "ĠDepuis": 2873,
      "Ġ1991": 2874,
      "ĠAvec": 2875,
      "Ã©volution": 2876,
      "Ġfai": 2877,
      "Ġ1995": 2878,
      "ĠderniÃ¨re": 2879,
      "ĠsiÃ¨ge": 2880,
      "color": 2881,
      "ippe": 2882,
      "Ġdix": 2883,
      "Ġcolle": 2884,
      "ĠcinÃ©ma": 2885,
      "Ġremporte": 2886,
      "ĠðŁĶĦ": 2887,
      "Ġsortie": 2888,
      "rog": 2889,
      "frique": 2890,
      "ĠðŁĺ": 2891,
      "Ġpatri": 2892,
      "En": 2893,
      "ĠðŁĹº": 2894,
      "Ġfra": 2895,
      "Ġprot": 2896,
      "69": 2897,
      "ðŁĩ¸": 2898,
      "ords": 2899,
      "ĠrÃ©giment": 2900,
      "Ġ\\": 2901,
      "Ġmoyenne": 2902,
      "Ġmoment": 2903,
      "\"><": 2904,
      "glise": 2905,
      "ĠXVII": 2906,
      "ĠðŁıŀ": 2907,
      "did": 2908,
      "ĠSes": 2909,
      "Ġ1980": 2910,
      "Ġzone": 2911,
      "nements": 2912,
      "Ġpetite": 2913,
      "erts": 2914,
      "rc": 2915,
      "Ġpal": 2916,
      "tine": 2917,
      "ĥ£": 2918,
      "bo": 2919,
      "Ġimm": 2920,
      "Ġhistorique": 2921,
      "pecta": 2922,
      "spagne": 2923,
      "lev": 2924,
      "br": 2925,
      "cientif": 2926,
      "Ġ31": 2927,
      "itre": 2928,
      "ĠChris": 2929,
      "sw": 2930,
      "Ġiniti": 2931,
      "Ġtechnique": 2932,
      "hÃ´": 2933,
      "ĠRÃ©s": 2934,
      "ĠMin": 2935,
      "ĠSy": 2936,
      "ï¸ıâĥ£": 2937,
      "anne": 2938,
      "Ã©ment": 2939,
      "Ġgrands": 2940,
      "umi": 2941,
      "Ġtravaux": 2942,
      "ĠHenri": 2943,
      "AN": 2944,
      "Ġparmi": 2945,
      "ĠWorld": 2946,
      "abord": 2947,
      "tout": 2948,
      "ĠDavid": 2949,
      "arget": 2950,
      "ĠCal": 2951,
      "Ġperd": 2952,
      "ates": 2953,
      "olymp": 2954,
      "leurs": 2955,
      "Ġassoci": 2956,
      "ĠIII": 2957,
      "Ġnouvelles": 2958,
      "ĠVict": 2959,
      "part": 2960,
      "Ġprincipale": 2961,
      "ambre": 2962,
      "ĠâĪ": 2963,
      "ĠRuss": 2964,
      "ensemble": 2965,
      "La": 2966,
      "Ã®le": 2967,
      "Ã«": 2968,
      "The": 2969,
      "Ġeffectu": 2970,
      "Ġphysi": 2971,
      "max": 2972,
      "Ġus": 2973,
      "put": 2974,
      "\")": 2975,
      "iche": 2976,
      "parti": 2977,
      "album": 2978,
      "Ġeng": 2979,
      "cles": 2980,
      "titut": 2981,
      "cours": 2982,
      "utton": 2983,
      "ĠvidÃ©": 2984,
      "onneur": 2985,
      "ĠCont": 2986,
      "ĠÃ¢": 2987,
      "arn": 2988,
      "ĠÃ©quipes": 2989,
      "Ġhaut": 2990,
      "omie": 2991,
      "ĠprÃ©cÃ©d": 2992,
      "ray": 2993,
      "Ġolymp": 2994,
      "Ġtrouv": 2995,
      "Ġ40": 2996,
      "34": 2997,
      "Ġx": 2998,
      "itecture": 2999,
      "rages": 3000,
      "Ġsuper": 3001,
      "ĠAt": 3002,
      "ene": 3003,
      "Ġmeur": 3004,
      "Ġsuc": 3005,
      "->": 3006,
      "Ġchanson": 3007,
      "ĠMat": 3008,
      "Ġprofesse": 3009,
      "Ġ1994": 3010,
      "Ġposition": 3011,
      "Ġdra": 3012,
      "Ġmouvement": 3013,
      "ino": 3014,
      "ĠNouv": 3015,
      "ĠðŁĶ¢": 3016,
      "Ġetc": 3017,
      "Ã©rit": 3018,
      "Ãªque": 3019,
      "isation": 3020,
      "Ġautour": 3021,
      "ĠParti": 3022,
      "Ġrepr": 3023,
      "type": 3024,
      "Ġdate": 3025,
      "rond": 3026,
      "62": 3027,
      "tation": 3028,
      "Ãªt": 3029,
      "Ġadministra": 3030,
      "ama": 3031,
      "ĠÎ": 3032,
      "Ġquand": 3033,
      "ĠThom": 3034,
      "umb": 3035,
      "ortÃ©": 3036,
      "adding": 3037,
      "ker": 3038,
      "łģ": 3039,
      "ĠÃ©lections": 3040,
      "ĠðŁĵĬ": 3041,
      "ĠRom": 3042,
      "Ġ1992": 3043,
      "roÃ¯": 3044,
      "jou": 3045,
      "Ġproduit": 3046,
      "Ġclassi": 3047,
      "ĠGl": 3048,
      "Ġchange": 3049,
      "Ġterme": 3050,
      "Ġkil": 3051,
      "moine": 3052,
      "ĠMÃ©d": 3053,
      "Ð¸": 3054,
      "ĠthÃ©Ã¢tre": 3055,
      "Ġparticipe": 3056,
      "ipÃ©dia": 3057,
      "iver": 3058,
      "äº": 3059,
      "Ġmeilleur": 3060,
      "ĠWikipÃ©dia": 3061,
      "ĠDel": 3062,
      "ĠâļĶ": 3063,
      "Ġdim": 3064,
      "ĠcatÃ©g": 3065,
      "posi": 3066,
      "Ã©pend": 3067,
      "och": 3068,
      "Ġstru": 3069,
      "ĠmÃ©m": 3070,
      "ĠThÃ©": 3071,
      "Ġsort": 3072,
      "Ġpeup": 3073,
      "enf": 3074,
      "ĠMc": 3075,
      "Ġcond": 3076,
      "Ġ1993": 3077,
      "ĠcommunautÃ©": 3078,
      "Ġbl": 3079,
      "ĠLy": 3080,
      "acitÃ©": 3081,
      "ampionnats": 3082,
      "ustri": 3083,
      "veur": 3084,
      "orth": 3085,
      "Ġbataille": 3086,
      "titude": 3087,
      "ĠNo": 3088,
      "respond": 3089,
      "anique": 3090,
      "ĠBra": 3091,
      "uri": 3092,
      "Ġstation": 3093,
      "ĠconsidÃ©rÃ©": 3094,
      "terre": 3095,
      "ĠfÃ©min": 3096,
      "gÃ©": 3097,
      "Ġservices": 3098,
      "occup": 3099,
      "Ã´me": 3100,
      "Ġmulti": 3101,
      "set": 3102,
      "44": 3103,
      "Ġparticulier": 3104,
      "Ġdessin": 3105,
      "abb": 3106,
      "uy": 3107,
      "Ġterre": 3108,
      "Ġmor": 3109,
      "Ġvale": 3110,
      "Ġmesure": 3111,
      "tivement": 3112,
      "Â»": 3113,
      "AS": 3114,
      "Ã©dition": 3115,
      "ĠcompÃ©ti": 3116,
      "lire": 3117,
      "tivitÃ©s": 3118,
      "Ġ1970": 3119,
      "orÃ©": 3120,
      "63": 3121,
      "ĠdiffÃ©rentes": 3122,
      "Ġpropre": 3123,
      "Ġlangue": 3124,
      "Ġsau": 3125,
      "file": 3126,
      "Ġcombat": 3127,
      "Ġcrois": 3128,
      "Ġeux": 3129,
      "bl": 3130,
      "go": 3131,
      "Ġcollab": 3132,
      "ĠFer": 3133,
      "Ġdocument": 3134,
      "Ġâľį": 3135,
      "ĠConseil": 3136,
      "âĢįâĻĤ": 3137,
      "ĠnÃ©cessaire": 3138,
      "çĶ": 3139,
      "ĠCam": 3140,
      "Ġasse": 3141,
      "hab": 3142,
      "ĠMil": 3143,
      "Ġdonne": 3144,
      "Ġscientif": 3145,
      "anie": 3146,
      "Ġpat": 3147,
      "Ġurb": 3148,
      "entif": 3149,
      "MD": 3150,
      "Ġdemande": 3151,
      "mary": 3152,
      "ĠfrÃ¨re": 3153,
      "ky": 3154,
      "ĠcrÃ©Ã©": 3155,
      "Ġdomaine": 3156,
      "ĠAng": 3157,
      "Ã©rieur": 3158,
      "France": 3159,
      "ĠJapon": 3160,
      "ĠPrÃ©": 3161,
      "Ġseule": 3162,
      "aite": 3163,
      "Ġparfois": 3164,
      "ĠentraÃ®": 3165,
      "Ġinform": 3166,
      "ĠamÃ©ricaine": 3167,
      "Ġress": 3168,
      "ĠJoseph": 3169,
      "ody": 3170,
      "za": 3171,
      "audi": 3172,
      "ottom": 3173,
      "58": 3174,
      "Ġremplac": 3175,
      "ï¼ļ": 3176,
      "Ġgrou": 3177,
      "aill": 3178,
      "Ġ180": 3179,
      "tection": 3180,
      "Ġsem": 3181,
      "Ġmoyen": 3182,
      "Ġchamp": 3183,
      "Ġsta": 3184,
      "ani": 3185,
      "und": 3186,
      "Ġperform": 3187,
      "99": 3188,
      "tice": 3189,
      "ager": 3190,
      "ĠmusÃ©e": 3191,
      ",,": 3192,
      "ĠÃ©tudi": 3193,
      "Ġple": 3194,
      "ares": 3195,
      "Ġlaiss": 3196,
      "Ġemb": 3197,
      "mment": 3198,
      "Am": 3199,
      "Ġprincipalement": 3200,
      "ctes": 3201,
      "environ": 3202,
      "rÃ©es": 3203,
      "olique": 3204,
      "Ġpropos": 3205,
      "oile": 3206,
      "Ġpublique": 3207,
      "sli": 3208,
      "abri": 3209,
      "jets": 3210,
      "ĠMusic": 3211,
      "ots": 3212,
      "igh": 3213,
      "quis": 3214,
      "('": 3215,
      "atta": 3216,
      "tÃ©roÃ¯": 3217,
      "lign": 3218,
      "iÃ©": 3219,
      "Ġsus": 3220,
      "ney": 3221,
      "cide": 3222,
      "Ġprog": 3223,
      "Ġaurait": 3224,
      "onc": 3225,
      "ĠðŁį": 3226,
      "Ġcomte": 3227,
      "Ã©bec": 3228,
      "Ġsuivante": 3229,
      "Ġspecta": 3230,
      "dire": 3231,
      "Ġsais": 3232,
      "ĠrÃ©fÃ©rence": 3233,
      "ĠðŁıĽï¸ı": 3234,
      "Ġdirecteur": 3235,
      "dess": 3236,
      "oid": 3237,
      "homme": 3238,
      "Ġlorsque": 3239,
      "ĸï¸ı": 3240,
      "ĠCro": 3241,
      "32": 3242,
      "ablement": 3243,
      "resse": 3244,
      "padding": 3245,
      "ĠfrÃ©qu": 3246,
      "ola": 3247,
      "ĠopÃ©ra": 3248,
      "ĠmÃ©dec": 3249,
      "ĠLondres": 3250,
      "ĠGre": 3251,
      "ĠsÃ©lection": 3252,
      "Ġkilom": 3253,
      "fique": 3254,
      "ĠKar": 3255,
      "Ġcorrespond": 3256,
      "aval": 3257,
      "ðŁĴ": 3258,
      "ĠmÃ©di": 3259,
      "Ġcouv": 3260,
      "ditionn": 3261,
      "agement": 3262,
      "fl": 3263,
      "ĠDescription": 3264,
      "ĠWilliam": 3265,
      "Ġtri": 3266,
      "ĠMag": 3267,
      "tiers": 3268,
      "ĠCarriÃ¨re": 3269,
      "Ġmaint": 3270,
      "Ġcommerci": 3271,
      "ĠrÃ©un": 3272,
      "Ġvictoire": 3273,
      "ieur": 3274,
      "å®": 3275,
      "Ġdispar": 3276,
      "ĠDeux": 3277,
      "ãĤ": 3278,
      "ension": 3279,
      "Ġfrom": 3280,
      "Ġsoi": 3281,
      "Ġminutes": 3282,
      "ĠPat": 3283,
      "ĠÅĵuvre": 3284,
      "ĠGo": 3285,
      "Ġdemand": 3286,
      "Ġphil": 3287,
      "ĠÃ©ta": 3288,
      "ĠWal": 3289,
      "ĠAg": 3290,
      "ĠsÃ©curitÃ©": 3291,
      "Ļï¸ı": 3292,
      "rige": 3293,
      "ĠHistorique": 3294,
      "gleterre": 3295,
      "49": 3296,
      "Ġsurtout": 3297,
      "ĠWh": 3298,
      "Ġcanton": 3299,
      "ðŁĵ": 3300,
      "Ðµ": 3301,
      "ĠSou": 3302,
      "ĠFranc": 3303,
      "47": 3304,
      "Ãīc": 3305,
      "Ġgestion": 3306,
      "allÃ©e": 3307,
      "Ġcependant": 3308,
      "orde": 3309,
      "target": 3310,
      "ĠDist": 3311,
      "Ġprincipal": 3312,
      "data": 3313,
      "ng": 3314,
      "argent": 3315,
      "='": 3316,
      "Ã¢ge": 3317,
      "elf": 3318,
      "Ġchois": 3319,
      "Ex": 3320,
      "dit": 3321,
      "ena": 3322,
      "Ġempl": 3323,
      "dic": 3324,
      "Ġdipl": 3325,
      "Ġinternationale": 3326,
      "AC": 3327,
      "Ġbord": 3328,
      "anim": 3329,
      "ml": 3330,
      "ĠWe": 3331,
      "ength": 3332,
      "ES": 3333,
      "Ġquartier": 3334,
      "ĠArch": 3335,
      "vention": 3336,
      "Ġagric": 3337,
      "important": 3338,
      "ĠfÃ©d": 3339,
      "Ġavaient": 3340,
      "ĠXIXe": 3341,
      "sum": 3342,
      "ĠscÃ©n": 3343,
      "ĠMartin": 3344,
      "erb": 3345,
      "ĠpremiÃ¨res": 3346,
      "Emp": 3347,
      "Ġconseil": 3348,
      "quant": 3349,
      "Ġpied": 3350,
      "Ġris": 3351,
      "Ġrecense": 3352,
      "Ġjeunes": 3353,
      "Ġif": 3354,
      "ĠDom": 3355,
      "organis": 3356,
      "ĠÃ©pouse": 3357,
      "lication": 3358,
      "ĠMaur": 3359,
      "ĠPhilippe": 3360,
      "Ġcommen": 3361,
      "Ġseconde": 3362,
      "obile": 3363,
      "ĠriviÃ¨re": 3364,
      "&&(": 3365,
      "Ġrusse": 3366,
      "ja": 3367,
      "button": 3368,
      "Ġvoyage": 3369,
      "Ġnoir": 3370,
      "click": 3371,
      "ĠprÃ©f": 3372,
      "Ġtent": 3373,
      "eld": 3374,
      "Ġoccup": 3375,
      "Ġfit": 3376,
      "ail": 3377,
      "Ġpu": 3378,
      "ĠdÃ©rou": 3379,
      "eri": 3380,
      "tienne": 3381,
      "Ġtransport": 3382,
      "Ã©cole": 3383,
      "Ġcause": 3384,
      "roph": 3385,
      "ĠtÃ©lÃ©vis": 3386,
      "ĠDon": 3387,
      "Ġobtient": 3388,
      "89": 3389,
      "ainque": 3390,
      "Ġgauche": 3391,
      "ologne": 3392,
      "Ġjapon": 3393,
      "Ġespagn": 3394,
      "æľ": 3395,
      "ĠcontrÃ´le": 3396,
      "inc": 3397,
      "ĠAss": 3398,
      "Ġvic": 3399,
      "ĠrÃ©guli": 3400,
      "Ġvon": 3401,
      "Ġtels": 3402,
      "Ġvoir": 3403,
      "Ġcul": 3404,
      "Ġreven": 3405,
      "ĠÃīditions": 3406,
      "Ġsens": 3407,
      "Ġcheval": 3408,
      "åħ": 3409,
      "Ġcharg": 3410,
      "ĠPort": 3411,
      "Ġremar": 3412,
      "Ġchi": 3413,
      "Ġdel": 3414,
      "cesse": 3415,
      "ĠðŁĴ¡": 3416,
      "ĠBu": 3417,
      "Ġgl": 3418,
      "Ġlequel": 3419,
      "itch": 3420,
      "ĠmatÃ©ri": 3421,
      "ĠmodÃ¨le": 3422,
      "Ġ1960": 3423,
      "seaux": 3424,
      "Ġsim": 3425,
      "Ġbande": 3426,
      "ĠSim": 3427,
      "ĠdonnÃ©": 3428,
      "dex": 3429,
      "Ġlanc": 3430,
      "gal": 3431,
      "Ġgare": 3432,
      "iod": 3433,
      "ades": 3434,
      "ĠlÃ©gis": 3435,
      "way": 3436,
      "ba": 3437,
      "fication": 3438,
      "ael": 3439,
      "onnes": 3440,
      "197": 3441,
      "aÃ®tre": 3442,
      "ĠnÃ©g": 3443,
      "Ġretra": 3444,
      "ĠEurope": 3445,
      "ĠprotÃ©": 3446,
      "Ġrespons": 3447,
      "Ġadap": 3448,
      "ĠNational": 3449,
      "ror": 3450,
      "ita": 3451,
      "Ġ1989": 3452,
      "onse": 3453,
      "AR": 3454,
      "Ġcr": 3455,
      "Ġpeintre": 3456,
      "ettes": 3457,
      "Ġban": 3458,
      "men": 3459,
      "arde": 3460,
      "ĠDatabase": 3461,
      "ĠÃ©criv": 3462,
      "Ġcandid": 3463,
      "ĠðŁ¦": 3464,
      "Ġopp": 3465,
      "Ġ1988": 3466,
      "ĠprÃ©sence": 3467,
      "ĠâŃĲ": 3468,
      "ĠproblÃ¨": 3469,
      "Ġnavi": 3470,
      "dre": 3471,
      "Ġcircons": 3472,
      "Ġsyn": 3473,
      "\"></": 3474,
      "box": 3475,
      "ĠdÃ©velopp": 3476,
      "Ġmarque": 3477,
      "Ġpolitiques": 3478,
      "Union": 3479,
      "ĠLo": 3480,
      "ĠOp": 3481,
      "ĠlÃł": 3482,
      "center": 3483,
      "gh": 3484,
      "ĠÅĵuvres": 3485,
      "Ġartis": 3486,
      "ĠPers": 3487,
      "Åĵuvre": 3488,
      "ĠNouvelle": 3489,
      "ks": 3490,
      "ĠTer": 3491,
      "ĠBas": 3492,
      "sib": 3493,
      "Ġzones": 3494,
      "UniversitÃ©": 3495,
      "landais": 3496,
      "ĠrÃ©d": 3497,
      "tionnaire": 3498,
      "aller": 3499,
      "ĠcÃ©lÃ¨": 3500,
      "marÃ¨s": 3501,
      "icile": 3502,
      "Ġitalien": 3503,
      "Ġpil": 3504,
      "Ġconsac": 3505,
      "xe": 3506,
      "ĠEr": 3507,
      "emb": 3508,
      "ĠQuÃ©bec": 3509,
      "ave": 3510,
      "Ġenreg": 3511,
      "ĠRome": 3512,
      "no": 3513,
      "Ġcourse": 3514,
      "ĠAs": 3515,
      "TP": 3516,
      "26": 3517,
      "ĠIer": 3518,
      "(){": 3519,
      "Ġ1971": 3520,
      "ctrice": 3521,
      "Ġsept": 3522,
      "ãģ": 3523,
      "empl": 3524,
      "Ã¨les": 3525,
      "endu": 3526,
      "itement": 3527,
      "ĠÃ©lÃ©": 3528,
      "ovis": 3529,
      "55": 3530,
      "anger": 3531,
      "ĠvÃ©": 3532,
      "Ġrejoint": 3533,
      "ren": 3534,
      "ader": 3535,
      "ring": 3536,
      "rac": 3537,
      "ĠMi": 3538,
      "ignes": 3539,
      "rem": 3540,
      "olas": 3541,
      "lant": 3542,
      "ĠChampionnat": 3543,
      "illa": 3544,
      "quÃªte": 3545,
      "Ġprofesseur": 3546,
      "ĠChrist": 3547,
      "Ġuti": 3548,
      "ĠDou": 3549,
      "ĠSam": 3550,
      "Ġpens": 3551,
      "verse": 3552,
      "âĶ": 3553,
      "ĠĠĠĠĠĠĠĠĠ": 3554,
      "aci": 3555,
      "arc": 3556,
      "Ġprendre": 3557,
      "ĠvidÃ©o": 3558,
      "ĠbÃ©nÃ©": 3559,
      "Ġcertaines": 3560,
      "ĠLigue": 3561,
      "Ġappr": 3562,
      "ko": 3563,
      "Ġchemin": 3564,
      "ueil": 3565,
      "nÃ©e": 3566,
      "ĠnÃ©e": 3567,
      "yc": 3568,
      "ĠcÅĵur": 3569,
      "ĠCent": 3570,
      "ouverture": 3571,
      "uration": 3572,
      "Ġhistoriques": 3573,
      "raw": 3574,
      "ives": 3575,
      "ĠGrande": 3576,
      "Ġsuff": 3577,
      "ĠVi": 3578,
      "36": 3579,
      "ĠPrin": 3580,
      "ĠAw": 3581,
      "bel": 3582,
      "ĠBal": 3583,
      "linear": 3584,
      "ĠBelgique": 3585,
      "===": 3586,
      "Ġretr": 3587,
      "Ġvue": 3588,
      "Ġci": 3589,
      "Ġarriv": 3590,
      "ĠTom": 3591,
      "ON": 3592,
      "Ġbel": 3593,
      "Ġgal": 3594,
      "igneur": 3595,
      "ĠThomas": 3596,
      "Ġgrandes": 3597,
      "Ġpersonne": 3598,
      "ĠAlexand": 3599,
      "stitut": 3600,
      "ĠÂ°": 3601,
      "AM": 3602,
      "Ġbes": 3603,
      "oux": 3604,
      "Ġjournal": 3605,
      "ĠrÃ©pond": 3606,
      "ĠrÃ©ser": 3607,
      "ĠeuropÃ©enne": 3608,
      "Ġ?": 3609,
      "forme": 3610,
      "image": 3611,
      "ĠðŁİ¯": 3612,
      "Ġsimple": 3613,
      "ĠmÃ©c": 3614,
      "length": 3615,
      "ĠHer": 3616,
      "ðŁĩº": 3617,
      "Ġpri": 3618,
      "Ġlac": 3619,
      "Ġdirige": 3620,
      "main": 3621,
      "ĠreÃ§oit": 3622,
      "ym": 3623,
      "orer": 3624,
      "Ã¨ce": 3625,
      "Ġsold": 3626,
      "Ġmine": 3627,
      "ourt": 3628,
      "ĠBro": 3629,
      "ĠXII": 3630,
      "Ġtotal": 3631,
      "Ã©rieure": 3632,
      "ihan": 3633,
      "Ġsrc": 3634,
      "Ġheures": 3635,
      "isc": 3636,
      "Ġplupart": 3637,
      "ĠespÃ¨ces": 3638,
      "ĠâĨ": 3639,
      "Ġanti": 3640,
      "ĠrÃ©f": 3641,
      "31": 3642,
      "Ġving": 3643,
      "ccident": 3644,
      "Ġlance": 3645,
      "Ġserait": 3646,
      "ĠÃ©dition": 3647,
      "rÃ©t": 3648,
      "Ġinv": 3649,
      "ĠðŁĵĸ": 3650,
      "texte": 3651,
      "Ġ1986": 3652,
      "ĠðŁĴ°": 3653,
      "uest": 3654,
      "ĠkilomÃ¨tres": 3655,
      "vid": 3656,
      "ctures": 3657,
      "arts": 3658,
      "late": 3659,
      "ĠðŁİ¨": 3660,
      "ĠRichard": 3661,
      "Ġvoul": 3662,
      "cp": 3663,
      "ĠVictor": 3664,
      "Ġlut": 3665,
      "ji": 3666,
      "linearicons": 3667,
      "ĠKe": 3668,
      "ĠGeorges": 3669,
      "ĠClub": 3670,
      "anisme": 3671,
      "Ġven": 3672,
      "ground": 3673,
      "ĠauprÃ¨s": 3674,
      "ieuse": 3675,
      "ółģ": 3676,
      "Ġlibre": 3677,
      "ĠðŁĵı": 3678,
      "Ġcomplex": 3679,
      "alogue": 3680,
      "Ġarm": 3681,
      "inture": 3682,
      "46": 3683,
      "Ã¨tre": 3684,
      "Ġ500": 3685,
      "85": 3686,
      "tistes": 3687,
      "Ġhref": 3688,
      "Ġbless": 3689,
      "ĠSainte": 3690,
      "font": 3691,
      "raine": 3692,
      "ĠMac": 3693,
      "mod": 3694,
      "Ġdistrict": 3695,
      "Ġrapidement": 3696,
      "hl": 3697,
      "Ã©die": 3698,
      "onyme": 3699,
      "honneur": 3700,
      "ĠForm": 3701,
      "ĠÃ©l": 3702,
      "Ġcer": 3703,
      "Ãªtes": 3704,
      "Ã©tat": 3705,
      "ĠBien": 3706,
      "istance": 3707,
      "Ġmodi": 3708,
      "Ġnorm": 3709,
      "Ġgroupes": 3710,
      "ducation": 3711,
      "rondissement": 3712,
      "Ġdirig": 3713,
      "ancien": 3714,
      "mie": 3715,
      "anth": 3716,
      "ĠRos": 3717,
      "Ġcompagnie": 3718,
      "ĠappelÃ©": 3719,
      "Ã¨tes": 3720,
      "ignement": 3721,
      "Je": 3722,
      "ĠPo": 3723,
      "Ġ1987": 3724,
      "Ġminist": 3725,
      "ministration": 3726,
      "Ã©dÃ©": 3727,
      "bres": 3728,
      "Ġvia": 3729,
      "Ġpossible": 3730,
      "ĠSm": 3731,
      "border": 3732,
      "master": 3733,
      "Ġfinalement": 3734,
      "ĠmÃ©th": 3735,
      "ĠgÃ©nÃ©ralement": 3736,
      "period": 3737,
      "Ġsource": 3738,
      "Ġfaut": 3739,
      "ĠðŁİŃ": 3740,
      "ĠTur": 3741,
      "At": 3742,
      "Ġdroite": 3743,
      "521": 3744,
      "Est": 3745,
      "Ġhors": 3746,
      "tention": 3747,
      "rat": 3748,
      "Ġmatchs": 3749,
      "ðŁı": 3750,
      "Ġami": 3751,
      "zo": 3752,
      "ĠPress": 3753,
      "ĠJames": 3754,
      "Ġaccomp": 3755,
      "ãĢģ[": 3756,
      "IN": 3757,
      "cha": 3758,
      "Ġcampagne": 3759,
      "ologiques": 3760,
      "VF": 3761,
      "del": 3762,
      "Ġtransf": 3763,
      "periodical": 3764,
      "Ġcharge": 3765,
      "ĠPalmarÃ¨s": 3766,
      "ĠUnivers": 3767,
      "tistics": 3768,
      "Ġforces": 3769,
      "ket": 3770,
      "ĠBri": 3771,
      "ĠtempÃ©ra": 3772,
      "do": 3773,
      "Ġsac": 3774,
      "bes": 3775,
      ".)": 3776,
      "orter": 3777,
      "ĠÃ©lu": 3778,
      "ator": 3779,
      "Ġmess": 3780,
      "Ġvilles": 3781,
      "Ġdesc": 3782,
      "cy": 3783,
      "âĶĢ": 3784,
      "ĠComme": 3785,
      "ĠdÃ©clar": 3786,
      "ĠRussie": 3787,
      "Ġdouble": 3788,
      "onie": 3789,
      "ĠrÃ©sid": 3790,
      "Ġdroits": 3791,
      "ĠStra": 3792,
      "Ġpont": 3793,
      "Ġ35": 3794,
      "::": 3795,
      "ĠMusÃ©e": 3796,
      "ĠArt": 3797,
      "cre": 3798,
      "Ġalign": 3799,
      "Ġindustri": 3800,
      "ĠDÃ©c": 3801,
      "itation": 3802,
      "Ġproche": 3803,
      "Ġrien": 3804,
      "ertes": 3805,
      "Ð½": 3806,
      "ford": 3807,
      "ĠbÃ¢timent": 3808,
      "61": 3809,
      "Ġcommande": 3810,
      "ĠChine": 3811,
      "Ġmeurt": 3812,
      "Re": 3813,
      "Ġplac": 3814,
      "ĠÃ©pisode": 3815,
      "inte": 3816,
      "mond": 3817,
      ")}": 3818,
      "ols": 3819,
      "{\\": 3820,
      "Ġlire": 3821,
      "Ġfourn": 3822,
      "ĠLang": 3823,
      "Ġcelles": 3824,
      "Ġlorsqu": 3825,
      "Ġancienne": 3826,
      "quÃ©e": 3827,
      "Ġsols": 3828,
      "aris": 3829,
      "Ġdiffus": 3830,
      "ainqueur": 3831,
      "ĠFre": 3832,
      "ows": 3833,
      "Ġclassement": 3834,
      "Ġdoi": 3835,
      "ĠPublic": 3836,
      "ĠFestival": 3837,
      "ĠdÃ©fense": 3838,
      "ĠðŁĮ³": 3839,
      "Ġspor": 3840,
      "uil": 3841,
      "vir": 3842,
      "ĠÃ©poque": 3843,
      "Ġwith": 3844,
      "Ġduc": 3845,
      "expl": 3846,
      "Ġâĺ": 3847,
      "Ġtermin": 3848,
      "Ġcritique": 3849,
      "ÑĢ": 3850,
      "Ġphilos": 3851,
      "ops": 3852,
      "Ġcm": 3853,
      "ĠGeorge": 3854,
      "AP": 3855,
      "ĠsÃ©par": 3856,
      "uni": 3857,
      "ĠYou": 3858,
      "atrice": 3859,
      "Ġaugment": 3860,
      "MS": 3861,
      "roche": 3862,
      "ĠcomtÃ©": 3863,
      "ĠBernard": 3864,
      "mblÃ©e": 3865,
      "hic": 3866,
      "Ġmonuments": 3867,
      "ĠJu": 3868,
      "range": 3869,
      "ĠqualitÃ©": 3870,
      "Uni": 3871,
      "Ġvoie": 3872,
      "nie": 3873,
      "Ġnuit": 3874,
      "ä½": 3875,
      "ĠðŁĸ": 3876,
      "ĠðŁĽ¡ï¸ı": 3877,
      "43": 3878,
      "tte": 3879,
      "Ġchampion": 3880,
      "dique": 3881,
      "ya": 3882,
      "uisse": 3883,
      "ĠðŁĩº": 3884,
      "vÃ©e": 3885,
      "itations": 3886,
      "hÃ©": 3887,
      "Ġquelque": 3888,
      "ings": 3889,
      "åĬ": 3890,
      "ĠÃ©ditions": 3891,
      "comm": 3892,
      "ĠðŁĵī": 3893,
      "net": 3894,
      "xue": 3895,
      "Ġscul": 3896,
      "Ġessenti": 3897,
      "Ġ1982": 3898,
      "Ġ1985": 3899,
      "Ġpermettant": 3900,
      "ĠCin": 3901,
      "orp": 3902,
      "Ġ1984": 3903,
      "ĠRoyaume": 3904,
      "Ġvot": 3905,
      "Ġtroupes": 3906,
      "den": 3907,
      "uste": 3908,
      "aie": 3909,
      "ombe": 3910,
      "weihan": 3911,
      "xueweihan": 3912,
      "Ġfav": 3913,
      "Ġassez": 3914,
      "ua": 3915,
      "Ġvois": 3916,
      "isode": 3917,
      "Ġnos": 3918,
      "¨ðŁĩ": 3919,
      "car": 3920,
      "ury": 3921,
      "âĢĶ": 3922,
      "Ġconstruit": 3923,
      "unesse": 3924,
      "lications": 3925,
      "Ġcomprend": 3926,
      "ovisuel": 3927,
      "Ġdat": 3928,
      "Ġensemble": 3929,
      "aug": 3930,
      "ides": 3931,
      "statistics": 3932,
      "dy": 3933,
      "MDb": 3934,
      "Ġfilms": 3935,
      ")ï¼ļ": 3936,
      "bottom": 3937,
      "Ġdyn": 3938,
      "ĠðŁĮĬ": 3939,
      "41": 3940,
      "ĠdÃ©part": 3941,
      "88": 3942,
      "lacement": 3943,
      "Italie": 3944,
      "Ġailleurs": 3945,
      "rive": 3946,
      "ĠtÃ©m": 3947,
      "ye": 3948,
      "ĠsantÃ©": 3949,
      "aix": 3950,
      "ĠEm": 3951,
      "orts": 3952,
      "ĠðŁĩ®": 3953,
      "ĠAinsi": 3954,
      "ĠðŁĵĿ": 3955,
      "hum": 3956,
      "ĠBeau": 3957,
      "Ġplate": 3958,
      "ĠðŁļ«": 3959,
      ")**": 3960,
      "itz": 3961,
      "ĠMos": 3962,
      "tig": 3963,
      "Ġextra": 3964,
      "ĠMet": 3965,
      "ĠÃ©trang": 3966,
      "ĠexpÃ©ri": 3967,
      "Ġtraditionn": 3968,
      "77": 3969,
      "ĠgÃ©nÃ©rale": 3970,
      "lam": 3971,
      "icier": 3972,
      "Ġsection": 3973,
      "ĠIMDb": 3974,
      "luence": 3975,
      "ĠÃ©conomique": 3976,
      "ĠðŁıĺ": 3977,
      "Ġĉĉĉ": 3978,
      "Ġnouveaux": 3979,
      "ĠpossÃ¨de": 3980,
      "quet": 3981,
      "Ġstu": 3982,
      "Ġtrib": 3983,
      "Ġrouge": 3984,
      "Ġaccue": 3985,
      "Ġobserv": 3986,
      "Ġfou": 3987,
      "Ġtest": 3988,
      "roit": 3989,
      "oyen": 3990,
      "ĠrÃ©sultats": 3991,
      "ĠprÃ©v": 3992,
      "Ġpublie": 3993,
      "å¼": 3994,
      "ĠparticuliÃ¨rement": 3995,
      "ize": 3996,
      "ague": 3997,
      "Ġpopulaire": 3998,
      "Ġend": 3999,
      "illÃ©": 4000,
      "tempor": 4001,
      "ider": 4002,
      "Ġsing": 4003,
      "ĠÃ®": 4004,
      "gen": 4005,
      "IC": 4006,
      "prit": 4007,
      "ĠChamp": 4008,
      "ĠVie": 4009,
      "idae": 4010,
      "Ġforce": 4011,
      "ĠRÃ©g": 4012,
      "audiovisuel": 4013,
      "termin": 4014,
      "deta": 4015,
      "rÃ©g": 4016,
      "Ġtaille": 4017,
      "ĠVol": 4018,
      "avoir": 4019,
      "Class": 4020,
      "42": 4021,
      "ĠarrÃª": 4022,
      "tisme": 4023,
      "osse": 4024,
      "Ġdirec": 4025,
      "ek": 4026,
      "tÃ©rieur": 4027,
      "roy": 4028,
      "Ġchac": 4029,
      "reux": 4030,
      "Ġ80": 4031,
      "ĠdÃ©mocra": 4032,
      "cal": 4033,
      "ĠJuli": 4034,
      "othÃ¨que": 4035,
      "Allemagne": 4036,
      "Ã¨ge": 4037,
      "ĠaÃ©ri": 4038,
      "Ġclimat": 4039,
      "ĠCrÃ©": 4040,
      "Ġtit": 4041,
      "Ġnav": 4042,
      "Ġorient": 4043,
      "Pierre": 4044,
      "Ġpatrimoine": 4045,
      "ĠSup": 4046,
      "Ġ1981": 4047,
      "ĠcompÃ©tition": 4048,
      "avec": 4049,
      "chniques": 4050,
      "ĠLin": 4051,
      "Ġmarch": 4052,
      "ĠInternation": 4053,
      "Ġciv": 4054,
      "ðŁĩ¹": 4055,
      "CL": 4056,
      "âĢİ": 4057,
      "dien": 4058,
      "Ġconnue": 4059,
      "Ġannonce": 4060,
      "Ġexiste": 4061,
      "rÃ©sil": 4062,
      "59": 4063,
      "Ġ60": 4064,
      "è¯": 4065,
      "summary": 4066,
      "olf": 4067,
      "Ġ1983": 4068,
      "ternet": 4069,
      "ling": 4070,
      "å¤": 4071,
      "ife": 4072,
      "Ġten": 4073,
      "Ġimportante": 4074,
      "mann": 4075,
      ".-": 4076,
      "oni": 4077,
      "Ġenvoy": 4078,
      "Ġprogramme": 4079,
      "Ġ1975": 4080,
      "details": 4081,
      "Ġfix": 4082,
      "ova": 4083,
      "rÃ©f": 4084,
      "agÃ©": 4085,
      "ww": 4086,
      "ĠGÃ©ographie": 4087,
      "£ï¸ı": 4088,
      "vidu": 4089,
      "ĠSeconde": 4090,
      "86": 4091,
      "ĠCong": 4092,
      "ĠðŁĴ¥": 4093,
      "Ġpersonnage": 4094,
      "Ġolympiques": 4095,
      "aide": 4096,
      "Ġ1940": 4097,
      "ĠðŁ§ł": 4098,
      "alyse": 4099,
      "reuve": 4100,
      "alisme": 4101,
      "ereur": 4102,
      "Ġorg": 4103,
      "Ã©ral": 4104,
      "abilitÃ©": 4105,
      "ĠMay": 4106,
      "Ġmas": 4107,
      "Ġparois": 4108,
      "ailles": 4109,
      "ĠClaude": 4110,
      "ĠðŁĹĵï¸ı.": 4111,
      "til": 4112,
      "rouve": 4113,
      "Ġmettre": 4114,
      "Ġfaible": 4115,
      "tell": 4116,
      "Ġsciences": 4117,
      "hom": 4118,
      "ĠsystÃ¨mes": 4119,
      "chet": 4120,
      "ĠconÃ§": 4121,
      "tiÃ©": 4122,
      "Ã³n": 4123,
      "ĠBerlin": 4124,
      "oft": 4125,
      "her": 4126,
      "retagne": 4127,
      "ĠAndrÃ©": 4128,
      "sub": 4129,
      "ĠPremiÃ¨re": 4130,
      "Ġpratique": 4131,
      "urer": 4132,
      "ĠÃ©n": 4133,
      "ister": 4134,
      "ergie": 4135,
      "Ġtitres": 4136,
      "ĠchaÃ®": 4137,
      "ĠðŁĩ¨ðŁĩ": 4138,
      "lÃ¨ve": 4139,
      "Ġsh": 4140,
      "Ġretrouve": 4141,
      "heure": 4142,
      "Aut": 4143,
      "dou": 4144,
      "fric": 4145,
      "Ġcollection": 4146,
      "ico": 4147,
      "ĠSar": 4148,
      "Ġfaisant": 4149,
      "ĠWar": 4150,
      "ĠdÃ©pl": 4151,
      "Ã§ant": 4152,
      "ĠTout": 4153,
      "tÃ©es": 4154,
      "ga": 4155,
      "ĠGuill": 4156,
      "âĢįâĻĢ": 4157,
      "Ġ1950": 4158,
      "Ġsalle": 4159,
      "Ġabs": 4160,
      "ĠFranÃ§ais": 4161,
      "Ġcomporte": 4162,
      "Ġhistoire": 4163,
      "Ġterrain": 4164,
      "Ġproduits": 4165,
      "ĠðŁĹºï¸ı": 4166,
      "ogne": 4167,
      "avait": 4168,
      "Ġcam": 4169,
      "occupation": 4170,
      "ĠcrÃ©Ã©e": 4171,
      "Ã©rer": 4172,
      "ĠVan": 4173,
      "ĠEntre": 4174,
      "ĠAug": 4175,
      "oue": 4176,
      "Ġatteint": 4177,
      "ĠNÃ©": 4178,
      "ĠdÃ©cide": 4179,
      "Espagne": 4180,
      "uts": 4181,
      "ĠMer": 4182,
      "($": 4183,
      "icon": 4184,
      "vous": 4185,
      "ĠCela": 4186,
      "tables": 4187,
      "ush": 4188,
      "Ġvitesse": 4189,
      "Ġara": 4190,
      "Ġrecensement": 4191,
      "57": 4192,
      "Ġlivres": 4193,
      "anterie": 4194,
      "ĠactivitÃ©s": 4195,
      "ĠlittÃ©rature": 4196,
      "fer": 4197,
      "ĠLand": 4198,
      "ĠfaÃ§on": 4199,
      "ĠPendant": 4200,
      "mage": 4201,
      "ĠcomposÃ©": 4202,
      "Ġloin": 4203,
      "ĠdÃ©ta": 4204,
      "ĠmÃ©moire": 4205,
      "çĶ¨": 4206,
      ",âĢİ": 4207,
      "Ġtexte": 4208,
      "itant": 4209,
      "ĠAmer": 4210,
      "\".": 4211,
      "oins": 4212,
      "Ġhuit": 4213,
      "background": 4214,
      "ĠDisc": 4215,
      "Ġ----------------": 4216,
      "ĠMy": 4217,
      "mph": 4218,
      "roup": 4219,
      "usercontent": 4220,
      "ĠintÃ©g": 4221,
      "ĠDistribution": 4222,
      "githubusercontent": 4223,
      "ala": 4224,
      "ĠnumÃ©ro": 4225,
      "Ġfron": 4226,
      "ulation": 4227,
      "este": 4228,
      "Ġmoderne": 4229,
      "Ãªmes": 4230,
      "ĠðŁĩ©": 4231,
      "Ġadop": 4232,
      "ĠPi": 4233,
      "ĠÃ©vÃ©": 4234,
      "Ã©dÃ©ration": 4235,
      "tian": 4236,
      "ĠSyn": 4237,
      "Ġhaute": 4238,
      "ĠĠĠĠĠĠ": 4239,
      "ago": 4240,
      "Ġoriginale": 4241,
      "rick": 4242,
      "iano": 4243,
      "itt": 4244,
      "ĠIV": 4245,
      "Ġcapitale": 4246,
      "ĠBon": 4247,
      "Ġsemble": 4248,
      "ĠmaÃ®tre": 4249,
      "Ġchant": 4250,
      "Ġ1978": 4251,
      "ĠĠĠĠĠĠĠĠĠĠĠĠĠĠĠĠĠĠĠ": 4252,
      "Is": 4253,
      "Ġcollec": 4254,
      "utÃ´t": 4255,
      "Ġmieux": 4256,
      "entrÃ©e": 4257,
      "Afrique": 4258,
      "Ġsaint": 4259,
      "ormais": 4260,
      "ĠðŁĩºðŁĩ¸": 4261,
      "Ġ1979": 4262,
      "atif": 4263,
      "atriÃ¨me": 4264,
      "ĠmarchÃ©": 4265,
      "sych": 4266,
      "Ġ(âĢ": 4267,
      "ĠTrois": 4268,
      "ĠPoli": 4269,
      "ige": 4270,
      "ĠBos": 4271,
      "rÃ©taire": 4272,
      "Ġdispon": 4273,
      "Empire": 4274,
      ",,.": 4275,
      "fie": 4276,
      "rement": 4277,
      "cept": 4278,
      "ĠtempÃ©rature": 4279,
      "ĠðŁı¡": 4280,
      "ĠMichael": 4281,
      "ĠtÃ©lÃ©vision": 4282,
      "titution": 4283,
      "Ġmeilleure": 4284,
      "ĠHol": 4285,
      "OS": 4286,
      "Lou": 4287,
      "ĠvÃ©hic": 4288,
      "Ġ1945": 4289,
      "partition": 4290,
      "alisÃ©": 4291,
      "ĠsupÃ©rieur": 4292,
      "Ġmax": 4293,
      "Ġpresque": 4294,
      "Ġsouh": 4295,
      "ĠSuisse": 4296,
      "aste": 4297,
      "pre": 4298,
      "list": 4299,
      "lections": 4300,
      "è¿": 4301,
      "Ġgaz": 4302,
      "nier": 4303,
      "Ġprotection": 4304,
      "ato": 4305,
      "Ġcentrale": 4306,
      "Ġ1977": 4307,
      "Ġ(âĢł": 4308,
      "pital": 4309,
      "anche": 4310,
      "params": 4311,
      "ĠLi": 4312,
      "ĠStu": 4313,
      "itÃ©e": 4314,
      "ĠFC": 4315,
      "oÃ«": 4316,
      "Ġprincipaux": 4317,
      "ugby": 4318,
      "79": 4319,
      "Ġdevenu": 4320,
      "Ġmode": 4321,
      "zy": 4322,
      "Ġcanadi": 4323,
      "Ġcarte": 4324,
      "iro": 4325,
      "ĠIt": 4326,
      "Ġnotre": 4327,
      "ophie": 4328,
      "Se": 4329,
      "Ġ1976": 4330,
      "core": 4331,
      "Ġ1973": 4332,
      "alise": 4333,
      "ĠpassÃ©": 4334,
      "^{": 4335,
      "Ġchasse": 4336,
      "Ġsavoir": 4337,
      "Ġferm": 4338,
      "unis": 4339,
      "ĠðŁĴĶ": 4340,
      "Ġ1968": 4341,
      "Ġaband": 4342,
      "æĸ": 4343,
      "åĪ": 4344,
      "Ġir": 4345,
      "Ġconfir": 4346,
      "ĠTop": 4347,
      "ican": 4348,
      "Ġvingt": 4349,
      "tem": 4350,
      "ĠÃ©lÃ©ments": 4351,
      "ĠSant": 4352,
      "Ġdisc": 4353,
      "Ã©lection": 4354,
      "ĠentiÃ¨re": 4355,
      "ĠApp": 4356,
      "Ġprise": 4357,
      "Ġmaire": 4358,
      "AT": 4359,
      "Ġradio": 4360,
      "unn": 4361,
      "ĠNap": 4362,
      "Ġpap": 4363,
      "Ġcode": 4364,
      "°ï¸ı": 4365,
      "ĠðŁĮĲ": 4366,
      "ĠdÃ©di": 4367,
      "web": 4368,
      "lÃ¨te": 4369,
      "onge": 4370,
      "Ġâľįï¸ı": 4371,
      "Ġsout": 4372,
      "ĠPol": 4373,
      "Ġblanc": 4374,
      "Ã¨g": 4375,
      "Ġjeux": 4376,
      "Ġtomb": 4377,
      "ĠðŁİ¬": 4378,
      "Ġali": 4379,
      "Ġyeux": 4380,
      "ĠcÃ©lÃ¨bre": 4381,
      "nov": 4382,
      "Ġ1972": 4383,
      "ĠðŁ¥ĩ": 4384,
      "ĠtÃ©lÃ©visÃ©e": 4385,
      "ĠpropriÃ©tÃ©": 4386,
      "Ġconcern": 4387,
      "Ġaucun": 4388,
      "dir": 4389,
      "Ġgrec": 4390,
      "Ġtechniques": 4391,
      "ĠAlbert": 4392,
      "tellig": 4393,
      "Ġmission": 4394,
      "ĠplutÃ´t": 4395,
      "toine": 4396,
      "arm": 4397,
      "Ġcaract": 4398,
      "ĠCerta": 4399,
      "Ġchin": 4400,
      "Ġinscrit": 4401,
      "Ġbeaux": 4402,
      "lÃ©g": 4403,
      "ĠÃ©pisodes": 4404,
      "bor": 4405,
      "ĠÃ©tape": 4406,
      "Ð¾Ð": 4407,
      "Ġprod": 4408,
      "Ġtermine": 4409,
      "limin": 4410,
      "Ġcontempor": 4411,
      "ello": 4412,
      "Ġpassage": 4413,
      "any": 4414,
      "ĠAli": 4415,
      "ĠJus": 4416,
      "itude": 4417,
      "190": 4418,
      "87": 4419,
      "ouch": 4420,
      "ĠWeb": 4421,
      "Ġ####": 4422,
      "issent": 4423,
      "Ġtransform": 4424,
      "Ñģ": 4425,
      "iper": 4426,
      "Ġstructure": 4427,
      "Ã¡n": 4428,
      "ĠTor": 4429,
      "riques": 4430,
      "oti": 4431,
      "ĠpiÃ¨ces": 4432,
      "Ġfinanci": 4433,
      "âĶĢâĶĢ": 4434,
      "ĠOb": 4435,
      "Ġvu": 4436,
      "ĠQue": 4437,
      "rans": 4438,
      "enses": 4439,
      "Ġbron": 4440,
      "Ġvaleur": 4441,
      "ĠNom": 4442,
      "ĠDieu": 4443,
      "ĠreprÃ©sente": 4444,
      "ĠMeille": 4445,
      "Ġjoueurs": 4446,
      "rÃ©al": 4447,
      "rs": 4448,
      "Ġ1974": 4449,
      "Ã«l": 4450,
      "ĠðŁİ¶": 4451,
      "uxelles": 4452,
      "chen": 4453,
      "Ġsituation": 4454,
      "Acad": 4455,
      "ĠAir": 4456,
      "otype": 4457,
      "ĠJack": 4458,
      "Ġpetits": 4459,
      "Ġbibli": 4460,
      "ries": 4461,
      "ĠðŁĩ¬": 4462,
      "ĠWest": 4463,
      "ĠFrancis": 4464,
      "Ġdistin": 4465,
      "film": 4466,
      "ĠDÃ©m": 4467,
      "ĠrÃ©seaux": 4468,
      "Ġscientifique": 4469,
      "Ġ(Â«": 4470,
      "95": 4471,
      "ĠprÃ©cip": 4472,
      "entreprise": 4473,
      "Ġmanif": 4474,
      "Ġcompris": 4475,
      "oser": 4476,
      "Ġprince": 4477,
      "Ġcouleur": 4478,
      "ĠPr": 4479,
      "ĠmalgrÃ©": 4480,
      "quent": 4481,
      "Ġsen": 4482,
      "Ġmob": 4483,
      "aisse": 4484,
      "Ġprocess": 4485,
      "jectif": 4486,
      "Ġby": 4487,
      "Ġfonctionn": 4488,
      "Ġvan": 4489,
      "ĠamÃ©li": 4490,
      "ish": 4491,
      "Ġtaux": 4492,
      "Ġstra": 4493,
      "ĠLuc": 4494,
      "ancienne": 4495,
      "bon": 4496,
      "ID": 4497,
      "orme": 4498,
      "Ġaffir": 4499,
      "Ġlignes": 4500,
      "ĠRog": 4501,
      "ĠâĽª": 4502,
      "don": 4503,
      "ĠTri": 4504,
      "Ġseigneur": 4505,
      "GC": 4506,
      "Ġvisite": 4507,
      "84": 4508,
      "Ġcomment": 4509,
      "lissement": 4510,
      "Ġallemande": 4511,
      "ĠSol": 4512,
      "van": 4513,
      "ĠRay": 4514,
      "ĠcÃ©rÃ©": 4515,
      "ĠdÃ©sormais": 4516,
      "Ġrespec": 4517,
      "architecture": 4518,
      "Ġparties": 4519,
      "Ġvolont": 4520,
      "Ġinstru": 4521,
      "Ġautom": 4522,
      "ĠCy": 4523,
      "Ġdisting": 4524,
      "Ġdevenir": 4525,
      "Ã©sie": 4526,
      "Ġsymb": 4527,
      "ĠpiÃ¨ce": 4528,
      "\"),": 4529,
      "Ġsigne": 4530,
      "Ġlesqu": 4531,
      "down": 4532,
      "Ġbonne": 4533,
      "Ad": 4534,
      "Ġreti": 4535,
      "ĠpÃ©n": 4536,
      "ound": 4537,
      "Ãīcole": 4538,
      "Ġrang": 4539,
      "Ġconv": 4540,
      "Ouest": 4541,
      "ications": 4542,
      "oup": 4543,
      "Ġannuelle": 4544,
      "Ġaccord": 4545,
      "Ġacteur": 4546,
      "IA": 4547,
      "ĠcapacitÃ©": 4548,
      "Ġ1944": 4549,
      "ĠreÃ§u": 4550,
      "âĢī": 4551,
      "Ġfront": 4552,
      "ĠLoc": 4553,
      "Ġconserv": 4554,
      "ĠâĪĴ": 4555,
      "ĠOli": 4556,
      "ĠPas": 4557,
      "ĠlÃ©gisla": 4558,
      "Ġinsp": 4559,
      "Ġchan": 4560,
      "ĠLÃ©g": 4561,
      "ĠDer": 4562,
      "ĠðŁıŀï¸ı": 4563,
      "uz": 4564,
      "dessus": 4565,
      "ington": 4566,
      "ube": 4567,
      "ĠFrÃ©": 4568,
      "ľ¨": 4569,
      "tain": 4570,
      "ĠdÃ©sign": 4571,
      "ĠFlor": 4572,
      "ĠutilisÃ©e": 4573,
      "ĠmÃ©daille": 4574,
      "ĠLim": 4575,
      "ĠHam": 4576,
      "indre": 4577,
      "ĠchrÃ©": 4578,
      "Ġcontinu": 4579,
      "sm": 4580,
      "ĠPremier": 4581,
      "Ġpresse": 4582,
      "iÃ¨res": 4583,
      "Ġarchite": 4584,
      "ĠBour": 4585,
      "onnÃ©": 4586,
      "Ġroyaume": 4587,
      "tan": 4588,
      "ather": 4589,
      "Ġvient": 4590,
      "ĠconsÃ©qu": 4591,
      "nies": 4592,
      "Ġlieux": 4593,
      "Ġcontrat": 4594,
      "ĠâļĶï¸ı": 4595,
      "iction": 4596,
      "ĠFam": 4597,
      "Ġfigure": 4598,
      "balle": 4599,
      "Institut": 4600,
      "US": 4601,
      "Ġgu": 4602,
      "ĠGuy": 4603,
      "ĠFiche": 4604,
      "Ġmention": 4605,
      "ython": 4606,
      "Ġmultip": 4607,
      "ĠRh": 4608,
      "ĠprÃ©cis": 4609,
      "Ġbal": 4610,
      "active": 4611,
      "Ġreturn": 4612,
      "Ġtota": 4613,
      "chant": 4614,
      "Ġconditions": 4615,
      "Ġtravaille": 4616,
      "olue": 4617,
      "atique": 4618,
      "align": 4619,
      "Ġ%),": 4620,
      "Ġsocial": 4621,
      "ĠAnnexes": 4622,
      "cteurs": 4623,
      "tein": 4624,
      "De": 4625,
      "IP": 4626,
      "Ġsovi": 4627,
      "Ġrendre": 4628,
      "ĠhÃ´": 4629,
      "ĠXXe": 4630,
      "Ġsujet": 4631,
      "ĠBre": 4632,
      "Ġterres": 4633,
      "ĠDaniel": 4634,
      "Ġcondam": 4635,
      "Ġdo": 4636,
      "Ġfonctions": 4637,
      "Ġlocale": 4638,
      "Ġlongueur": 4639,
      "ĠðŁĴª": 4640,
      "ustom": 4641,
      "utilisation": 4642,
      "Ġmoteur": 4643,
      "łï¸ı": 4644,
      "Ġsoldats": 4645,
      "ĠDen": 4646,
      "ĠcrÃ©er": 4647,
      "Ġpolice": 4648,
      "ĠChampion": 4649,
      "oble": 4650,
      "Ġregard": 4651,
      "tiÃ¨res": 4652,
      "atur": 4653,
      "duite": 4654,
      "ĠChampionnats": 4655,
      "Ġautor": 4656,
      "ĠdÃ©crit": 4657,
      "Ġsurface": 4658,
      "Ġbuts": 4659,
      "Ass": 4660,
      "Ġapparten": 4661,
      "xl": 4662,
      "ypes": 4663,
      "çĽ": 4664,
      "Ġfus": 4665,
      "AcadÃ©mie": 4666,
      "Ġquestion": 4667,
      "ĠPologne": 4668,
      "Ġbronze": 4669,
      "ĠAllemagne": 4670,
      "Ġgros": 4671,
      "Ġmaxim": 4672,
      "Ãªts": 4673,
      "ĠCulture": 4674,
      "Ġdestin": 4675,
      "ami": 4676,
      "Ġcalcul": 4677,
      "view": 4678,
      "ĠdÃ©putÃ©": 4679,
      "53": 4680,
      "ext": 4681,
      "ustrie": 4682,
      "appar": 4683,
      "Ã´ne": 4684,
      "size": 4685,
      "Op": 4686,
      "ĠLife": 4687,
      "ureau": 4688,
      "lÃ©es": 4689,
      "Ġchapelle": 4690,
      "tta": 4691,
      "url": 4692,
      "ĠItalie": 4693,
      "ĠðŁĩª": 4694,
      "ographiques": 4695,
      "ĠcÃ´tÃ©s": 4696,
      "occasion": 4697,
      "osition": 4698,
      "infanterie": 4699,
      "positions": 4700,
      "Ġel": 4701,
      "ðŁĮ": 4702,
      "Ġmilitaires": 4703,
      "Ġ1967": 4704,
      "ĠBruxelles": 4705,
      "fort": 4706,
      "png": 4707,
      "Ġvice": 4708,
      "Ġdef": 4709,
      "Ġsuivi": 4710,
      "\"},": 4711,
      "ĠBlan": 4712,
      "Ġdoivent": 4713,
      "ĠNicolas": 4714,
      "command": 4715,
      "ĠðŁĵħ.": 4716,
      "oÃ®": 4717,
      "espace": 4718,
      "usement": 4719,
      "ĠpropriÃ©t": 4720,
      "Ġpersonnages": 4721,
      "umul": 4722,
      "cession": 4723,
      "Ġmand": 4724,
      "ibles": 4725,
      "Ġmariage": 4726,
      "ĠDie": 4727,
      "Ġdonner": 4728,
      "Ġcatholique": 4729,
      "Ġquant": 4730,
      "Ġcherche": 4731,
      "ronique": 4732,
      "Ġindividu": 4733,
      "Ġchiff": 4734,
      "ĠBan": 4735,
      "ĠToul": 4736,
      "Ġcontinue": 4737,
      "Ġcapitaine": 4738,
      "92": 4739,
      "åĲ": 4740,
      "chestre": 4741,
      "Ġtelle": 4742,
      "56": 4743,
      "Ġfoot": 4744,
      "sui": 4745,
      "Ġtend": 4746,
      "Ġdata": 4747,
      "ĠdÃ©fini": 4748,
      "Ġpasser": 4749,
      "Ġnaturelle": 4750,
      "ĠVers": 4751,
      "ĠAngel": 4752,
      "lor": 4753,
      "utÃ©s": 4754,
      "issant": 4755,
      "ĠParmi": 4756,
      "objet": 4757,
      "Ġlettres": 4758,
      "Ã§a": 4759,
      "Ġfusion": 4760,
      "Ġemploy": 4761,
      "Ġdiffic": 4762,
      "onymie": 4763,
      "rol": 4764,
      "ester": 4765,
      "Ġpourrait": 4766,
      "ĠmoitiÃ©": 4767,
      "Ġsoutien": 4768,
      "Ġrelations": 4769,
      "Ġ1930": 4770,
      "ustralie": 4771,
      "ĠPet": 4772,
      "Ġru": 4773,
      "Ã©mission": 4774,
      "Ġphysique": 4775,
      "Ġpeuple": 4776,
      "ĠBill": 4777,
      "ĠLiv": 4778,
      "zi": 4779,
      "ĠPeter": 4780,
      "Ġcommunication": 4781,
      "ament": 4782,
      "52": 4783,
      "ĠAnton": 4784,
      "Ġtournoi": 4785,
      "organisation": 4786,
      "ĠThÃ©Ã¢tre": 4787,
      "And": 4788,
      "rivÃ©e": 4789,
      "ĠSil": 4790,
      "ĠAvant": 4791,
      "ĠTerre": 4792,
      "Ġbelge": 4793,
      "Ãīglise": 4794,
      "roid": 4795,
      "Ãªche": 4796,
      "ficie": 4797,
      "54": 4798,
      "ĠFond": 4799,
      "opp": 4800,
      "Ġpropose": 4801,
      "lim": 4802,
      "import": 4803,
      "run": 4804,
      "ilis": 4805,
      "ĠmajoritÃ©": 4806,
      "ÅĤ": 4807,
      "utenant": 4808,
      "itaine": 4809,
      "ĠquatriÃ¨me": 4810,
      "Ġ1969": 4811,
      "ĠFootball": 4812,
      "Ġcommerce": 4813,
      "\",\"": 4814,
      "51": 4815,
      "Ġsecteur": 4816,
      "Ġamb": 4817,
      "ĠDurant": 4818,
      "Ġtelles": 4819,
      "ologue": 4820,
      "Ġcinqu": 4821,
      "Ġbran": 4822,
      "aritÃ©": 4823,
      "Ġarg": 4824,
      "Ġsomm": 4825,
      "moins": 4826,
      "Ġsculp": 4827,
      "ĠImp": 4828,
      "till": 4829,
      "raient": 4830,
      "Ġdomaines": 4831,
      "ĠmunicipalitÃ©": 4832,
      "Ġentreprises": 4833,
      ":\"": 4834,
      "ĠCamp": 4835,
      "non": 4836,
      "side": 4837,
      "ĠâĨĴ": 4838,
      "ĠLyon": 4839,
      "ĠGuillaume": 4840,
      "Ġforte": 4841,
      "Ġdirectement": 4842,
      "76": 4843,
      "olume": 4844,
      "Ġsociale": 4845,
      "ðŁĩ§": 4846,
      "Ġrur": 4847,
      "azine": 4848,
      "transform": 4849,
      "ĠMod": 4850,
      "Ġceinture": 4851,
      "peci": 4852,
      "Ġprovo": 4853,
      "ĠSav": 4854,
      "ĠMontrÃ©al": 4855,
      "ĠInternational": 4856,
      "ðŁĶ": 4857,
      "%;\"></": 4858,
      "Ã©ros": 4859,
      "ali": 4860,
      "Ġvir": 4861,
      "fig": 4862,
      "Ġcertain": 4863,
      "ĠvÃ©rit": 4864,
      "null": 4865,
      "ĠdÃ©termin": 4866,
      "ĠÃīp": 4867,
      "ĠTitre": 4868,
      "Ġalli": 4869,
      "ool": 4870,
      "ower": 4871,
      "orb": 4872,
      "âĢįâĻĤï¸ı": 4873,
      "Ġsang": 4874,
      "ĠðŁĩ©ðŁĩª": 4875,
      "Ã©tab": 4876,
      "Ġtal": 4877,
      "ĠðŁª": 4878,
      "ĠderriÃ¨re": 4879,
      "ross": 4880,
      "ĠvallÃ©e": 4881,
      "fice": 4882,
      "Ġ//": 4883,
      "IM": 4884,
      "Ġdeme": 4885,
      "ĠXVIIIe": 4886,
      ":!": 4887,
      "Ġ1962": 4888,
      "Ġintro": 4889,
      "Ġenfin": 4890,
      "Ġderniers": 4891,
      "Ġliber": 4892,
      "ĠÃ©tat": 4893,
      "Åĵurs": 4894,
      "ĠbÃ¢timents": 4895,
      "ĠNotre": 4896,
      "Ġdivis": 4897,
      "Ġattribu": 4898,
      "lÃł": 4899,
      "ĠðŁĳ¨âĢįðŁĳ": 4900,
      "Ġbassin": 4901,
      "Ġdistance": 4902,
      "lat": 4903,
      "ĠVe": 4904,
      "Ġanciens": 4905,
      "Ġfab": 4906,
      "ĠPersonn": 4907,
      "rass": 4908,
      "cel": 4909,
      "intÃ©rieur": 4910,
      "ĠMaison": 4911,
      "enseignement": 4912,
      "Ġaj": 4913,
      "ĠSci": 4914,
      "Ġ%).": 4915,
      "ĠIns": 4916,
      "Ġtableau": 4917,
      "Ġcirconscription": 4918,
      "Ġartistes": 4919,
      "ĠreprÃ©sentant": 4920,
      "ĠLÃ©on": 4921,
      "ĠÃīc": 4922,
      "ĠMel": 4923,
      "ĠElles": 4924,
      "ĠÃĹ": 4925,
      "ĠVin": 4926,
      "Ġrevue": 4927,
      "ĠdÃ©couvert": 4928,
      "the": 4929,
      "Ġappare": 4930,
      "98": 4931,
      "ĠðŁķĬ": 4932,
      "cript": 4933,
      "ĠministÃ¨re": 4934,
      "Ġ1964": 4935,
      "Ġfranc": 4936,
      "Ġcit": 4937,
      "Ġpot": 4938,
      "Ġquitte": 4939,
      "ĠGir": 4940,
      "ĠReg": 4941,
      "administration": 4942,
      "ardi": 4943,
      "sident": 4944,
      "Ġrestaur": 4945,
      "ĠÃ©m": 4946,
      "ĠBur": 4947,
      "Ġjuge": 4948,
      "Ġrecons": 4949,
      "Ġpoursui": 4950,
      "cell": 4951,
      "Ġtop": 4952,
      "ula": 4953,
      "md": 4954,
      "Ġvoi": 4955,
      "ĠRi": 4956,
      "Angleterre": 4957,
      "sha": 4958,
      "Ġjaponais": 4959,
      "100": 4960,
      "Ġenregist": 4961,
      "ĠVII": 4962,
      "256": 4963,
      "ĠEs": 4964,
      "2000": 4965,
      "IT": 4966,
      "Ġ1939": 4967,
      "Ġ1966": 4968,
      "oto": 4969,
      "Ġsouff": 4970,
      "Ġpierre": 4971,
      "Ġaucune": 4972,
      "Ġmou": 4973,
      "Ġ:**": 4974,
      "Ġfootballe": 4975,
      "¤Ŀ": 4976,
      "74": 4977,
      "Ġlie": 4978,
      "Ġcomptait": 4979,
      "Saint": 4980,
      "ho": 4981,
      "Ġinstall": 4982,
      "ä¸Ģ": 4983,
      "ĠstratÃ©": 4984,
      "rance": 4985,
      "EN": 4986,
      "Äĩ": 4987,
      "ĠmodÃ¨les": 4988,
      "inaire": 4989,
      "kin": 4990,
      "Ġpauv": 4991,
      "lir": 4992,
      "Ġdiverses": 4993,
      "ÑĤ": 4994,
      "Ĵuv": 4995,
      "ĠSous": 4996,
      "Ġvend": 4997,
      "ĠMur": 4998,
      "Ġproxim": 4999,
      "(),": 5000,
      "Ġaccep": 5001,
      "Ġconcl": 5002,
      "Ġconsul": 5003,
      "ĠâĿĮ": 5004,
      "ĠÃ©volu": 5005,
      "Ġartistique": 5006,
      "istan": 5007,
      "Ġsenti": 5008,
      "Ġparlement": 5009,
      "Ġoriginal": 5010,
      "ĠðŁĻ": 5011,
      "stron": 5012,
      "ĠcollÃ¨": 5013,
      "Louis": 5014,
      "Ġ1965": 5015,
      "Ġexist": 5016,
      "ĠFrank": 5017,
      "ĠdÃ©cid": 5018,
      "ĠNor": 5019,
      "ĠcatÃ©gorie": 5020,
      "Ġmach": 5021,
      "Ġsources": 5022,
      "Ġpartis": 5023,
      "enci": 5024,
      "Ġfaisait": 5025,
      "omatique": 5026,
      "gt": 5027,
      "ram": 5028,
      "chev": 5029,
      "ĠindÃ©pend": 5030,
      "entiel": 5031,
      "cer": 5032,
      "Ġcourt": 5033,
      "lip": 5034,
      "Ġsit": 5035,
      "ĠðŁĮ±": 5036,
      "ĠMuse": 5037,
      "ðŁİ": 5038,
      "ĠMonde": 5039,
      "Ġble": 5040,
      "osÃ©e": 5041,
      "ĠinterprÃ©": 5042,
      "odie": 5043,
      "ĠrÃ©gions": 5044,
      "Ġlatin": 5045,
      "actu": 5046,
      "lÃ©e": 5047,
      "opÃ©ra": 5048,
      "Ġmontagne": 5049,
      "Ġjui": 5050,
      "Ġpsych": 5051,
      "Ġcab": 5052,
      "ĠRoyal": 5053,
      "entraÃ®": 5054,
      "Ġheure": 5055,
      "ĠproximitÃ©": 5056,
      "jor": 5057,
      "ĠLor": 5058,
      "uch": 5059,
      "ĠAndre": 5060,
      "Ġguit": 5061,
      "73": 5062,
      "Ġclassique": 5063,
      "Ġcentral": 5064,
      "Ġtax": 5065,
      "Ġreli": 5066,
      "ophe": 5067,
      "Ġå": 5068,
      "Ġcontribu": 5069,
      "ĠAnne": 5070,
      "Bas": 5071,
      "Ġmaje": 5072,
      "Ġmondial": 5073,
      "ĠsecrÃ©taire": 5074,
      "©âĢįðŁĳ": 5075,
      "ĠdÃ©pend": 5076,
      "gar": 5077,
      "ĠCos": 5078,
      "Ġpuissance": 5079,
      "doc": 5080,
      "Ġcaval": 5081,
      "ĠClasse": 5082,
      "Ġ2025": 5083,
      "Ġdevait": 5084,
      "Ġjouer": 5085,
      "ĠchaÃ®ne": 5086,
      "rez": 5087,
      "Ã±": 5088,
      "quÃ©s": 5089,
      "rastru": 5090,
      "ĠAlors": 5091,
      "ĠMaurice": 5092,
      "Ġcop": 5093,
      "Ġcartes": 5094,
      "gor": 5095,
      "Ã©tro": 5096,
      "Ġactrice": 5097,
      "sements": 5098,
      "ĠDire": 5099,
      "ĠVill": 5100,
      "Ã©crit": 5101,
      "die": 5102,
      "Ġdoll": 5103,
      "ĠBay": 5104,
      "Ġbras": 5105,
      "ĠRenÃ©": 5106,
      "Ã©rop": 5107,
      "def": 5108,
      "Ġpermis": 5109,
      "usta": 5110,
      "Ġappro": 5111,
      "Ġoccident": 5112,
      "alisÃ©e": 5113,
      "agnes": 5114,
      "ogle": 5115,
      "Ġpou": 5116,
      "trÃªme": 5117,
      "ictionnaire": 5118,
      "amour": 5119,
      "Ġsuit": 5120,
      "Ðº": 5121,
      "rest": 5122,
      "ĠprÃ©par": 5123,
      "index": 5124,
      "las": 5125,
      "swiper": 5126,
      "ĠEst": 5127,
      "Ã©ries": 5128,
      "Ġcycl": 5129,
      "82": 5130,
      "Ġmur": 5131,
      "Ġchambre": 5132,
      "raphe": 5133,
      "ĠdÃ©couverte": 5134,
      "ĠJourn": 5135,
      ".$": 5136,
      "mÃ©di": 5137,
      "ĠLong": 5138,
      "Ġ70": 5139,
      "Ġ1963": 5140,
      "ĠRes": 5141,
      "**.": 5142,
      "ĠHenry": 5143,
      "bb": 5144,
      "PS": 5145,
      "Ġpolon": 5146,
      "AD": 5147,
      "lymp": 5148,
      "Ġcircul": 5149,
      "Ġeut": 5150,
      "ĠMax": 5151,
      "ires": 5152,
      "Ġconnex": 5153,
      "Ġmains": 5154,
      "ustral": 5155,
      "pol": 5156,
      "Ġcru": 5157,
      "sibilitÃ©": 5158,
      "Ġnoms": 5159,
      "ĠtraitÃ©": 5160,
      "ĠfranÃ§aises": 5161,
      "ĠHug": 5162,
      "Ġloge": 5163,
      "uter": 5164,
      "Ġtrouver": 5165,
      "Ġvrai": 5166,
      "abel": 5167,
      "Ġtyp": 5168,
      "Ġutilise": 5169,
      "72": 5170,
      "Les": 5171,
      "Ġsuis": 5172,
      "opsis": 5173,
      "kh": 5174,
      "fier": 5175,
      "ĠCarl": 5176,
      "ssemblÃ©e": 5177,
      "Ġavi": 5178,
      "Ġbout": 5179,
      "ĠHaute": 5180,
      "ports": 5181,
      "Ġclubs": 5182,
      "astique": 5183,
      "ward": 5184,
      "andes": 5185,
      "ĠDoc": 5186,
      "Ġchoix": 5187,
      "Ġtraitement": 5188,
      "ĠSw": 5189,
      "ernes": 5190,
      "ett": 5191,
      "appel": 5192,
      "Ġcritiques": 5193,
      "ulle": 5194,
      "ĠNav": 5195,
      "ĠKh": 5196,
      "ĠBlack": 5197,
      "oz": 5198,
      "viennent": 5199,
      "Ġ1943": 5200,
      "Ġportant": 5201,
      "rient": 5202,
      "opÃ©ration": 5203,
      "burg": 5204,
      "Ġmorts": 5205,
      "ĠrÃ©gime": 5206,
      "ariste": 5207,
      "Ġgarde": 5208,
      "Ġprocessus": 5209,
      "ĠTre": 5210,
      "ĠChap": 5211,
      "ĠDr": 5212,
      "ĠðŁĳ¥": 5213,
      "ĠParcours": 5214,
      "ĠQuel": 5215,
      "ðŁĳ": 5216,
      "ĠportÃ©": 5217,
      "icros": 5218,
      "={": 5219,
      "Ġeaux": 5220,
      "Ġprobablement": 5221,
      "link": 5222,
      "Ġ1914": 5223,
      "Ġsembl": 5224,
      "ockey": 5225,
      "Ġmath": 5226,
      "anmoins": 5227,
      "sier": 5228,
      "Ġfootballeur": 5229,
      "ĠapparaÃ®t": 5230,
      "work": 5231,
      "Ġ1958": 5232,
      "lare": 5233,
      "Ġlangues": 5234,
      "ĠcitÃ©": 5235,
      "ç»": 5236,
      "see": 5237,
      "Ġnaissance": 5238,
      "iennes": 5239,
      "html": 5240,
      "Ġ1942": 5241,
      "Ġposi": 5242,
      "ater": 5243,
      "ĠVir": 5244,
      "ĠWil": 5245,
      "Ġmi": 5246,
      "©âĢįðŁĳ§": 5247,
      "andard": 5248,
      "atives": 5249,
      "Ġ1941": 5250,
      "heim": 5251,
      "onique": 5252,
      "])": 5253,
      "Ġchante": 5254,
      "times": 5255,
      "âļ": 5256,
      "umes": 5257,
      "ĠðŁĴ§": 5258,
      "Ġinformations": 5259,
      "ĠchargÃ©": 5260,
      "ĠDÃ¨s": 5261,
      "ĠOrig": 5262,
      "Ġcompar": 5263,
      "ĠBru": 5264,
      "Ġhash": 5265,
      "ĠGui": 5266,
      "anes": 5267,
      "ĠRÃ©volution": 5268,
      "chÃ©e": 5269,
      "Ġ1920": 5270,
      "Ġrisque": 5271,
      "Ġphase": 5272,
      "Ġfour": 5273,
      "ĠPan": 5274,
      "ores": 5275,
      "Ġ400": 5276,
      "Äģ": 5277,
      "accÃ¨s": 5278,
      "quie": 5279,
      "Ġconcernant": 5280,
      "zon": 5281,
      "eck": 5282,
      "Ġdistribution": 5283,
      "Qu": 5284,
      "æĺ": 5285,
      "Ġbour": 5286,
      "ĠEsp": 5287,
      "ĠChÃ¢teau": 5288,
      "Ġcontraire": 5289,
      "ĠðŁİ¤": 5290,
      "71": 5291,
      "Ġfestival": 5292,
      "Ġlongtemps": 5293,
      "91": 5294,
      "riche": 5295,
      "ĠMÃ©": 5296,
      "ĠFÃ©dÃ©ration": 5297,
      "Ġchansons": 5298,
      "Ġrais": 5299,
      "ainer": 5300,
      "ĠastÃ©roÃ¯": 5301,
      "crip": 5302,
      "Ġmontre": 5303,
      "RE": 5304,
      "ensis": 5305,
      "ctor": 5306,
      "Ġcell": 5307,
      "ĠÃīglise": 5308,
      "ĠUniversity": 5309,
      "ĠMex": 5310,
      "ĠCel": 5311,
      "oint": 5312,
      "Ġpeine": 5313,
      "Marie": 5314,
      "Ġproven": 5315,
      "sk": 5316,
      "name": 5317,
      "ĠJosÃ©": 5318,
      "Ġ*/": 5319,
      "ake": 5320,
      "ĠðŁı°": 5321,
      "Ġprofessionnel": 5322,
      "Ġeffic": 5323,
      "Ã©conom": 5324,
      "Ġ1959": 5325,
      "ĠprÃ©cipitations": 5326,
      "93": 5327,
      "Ġlettre": 5328,
      "tÃ©rie": 5329,
      "ĠJan": 5330,
      "tt": 5331,
      "Ġnaturel": 5332,
      "oo": 5333,
      "inet": 5334,
      "urrent": 5335,
      "Ġdomin": 5336,
      "ics": 5337,
      "Ġreb": 5338,
      "Ġgard": 5339,
      "ny": 5340,
      "Ġespagnol": 5341,
      "vide": 5342,
      "Å¡": 5343,
      "Ġ90": 5344,
      "onsieur": 5345,
      "Ġreprises": 5346,
      "ĠMaria": 5347,
      "83": 5348,
      "owl": 5349,
      "ike": 5350,
      "awa": 5351,
      "Ã©tude": 5352,
      "Ġhau": 5353,
      "Ġmauv": 5354,
      "Ġarts": 5355,
      "Ġgens": 5356,
      "key": 5357,
      "Ġcollaboration": 5358,
      "Ġha": 5359,
      "oitation": 5360,
      "Ġprogres": 5361,
      "pin": 5362,
      "slide": 5363,
      "bus": 5364,
      "uck": 5365,
      "è®": 5366,
      "ĠMoyen": 5367,
      "pi": 5368,
      "ĠsiÃ¨cles": 5369,
      "ĠdÃ©tru": 5370,
      "Ġtombe": 5371,
      "Ġrenfor": 5372,
      "ĠNorm": 5373,
      "Ã©tend": 5374,
      "Ġbru": 5375,
      "oirs": 5376,
      "ranger": 5377,
      "Ġmassi": 5378,
      "ĠChristian": 5379,
      "ĠMovie": 5380,
      "Ġsitue": 5381,
      "ĠÃ©limin": 5382,
      "Ġant": 5383,
      "Ġoutre": 5384,
      "truction": 5385,
      "Ġweb": 5386,
      "osa": 5387,
      "Ġofficiellement": 5388,
      "ĠÅĴuv": 5389,
      "dium": 5390,
      "Ġparticipation": 5391,
      "oses": 5392,
      "otes": 5393,
      "Ġdollars": 5394,
      "ĠMas": 5395,
      "Ġrefus": 5396,
      "Ġparce": 5397,
      "ĠNGC": 5398,
      "ennis": 5399,
      "Ã©nergie": 5400,
      "Ġcivi": 5401,
      "ĠDiv": 5402,
      "Ġstatut": 5403,
      "Ġmonument": 5404,
      "ĠremportÃ©": 5405,
      "Ġcommandant": 5406,
      "oids": 5407,
      "ĠAnn": 5408,
      "Ġspectacle": 5409,
      "rad": 5410,
      "ĠðŁĻı": 5411,
      "Ġvo": 5412,
      "Ġsex": 5413,
      "ĠGren": 5414,
      "Ġjournaliste": 5415,
      "ĠBrun": 5416,
      "Ġdur": 5417,
      "ĠdÃ©g": 5418,
      "ĠLos": 5419,
      "bi": 5420,
      "Ġred": 5421,
      "ĠproblÃ¨mes": 5422,
      "tÃ©e": 5423,
      "Ġ1956": 5424,
      "hen": 5425,
      "ocÃ¨se": 5426,
      "Ġ45": 5427,
      "gg": 5428,
      "Ġcroiss": 5429,
      "ĠAff": 5430,
      "ĠðŁĩ¬ðŁĩ§": 5431,
      "Ġpermettent": 5432,
      "ĠBourg": 5433,
      "als": 5434,
      "rales": 5435,
      "ĠcaractÃ©ristiques": 5436,
      "§ĳ": 5437,
      "ĠVille": 5438,
      "ban": 5439,
      "Ġsites": 5440,
      "Ġestim": 5441,
      "Ġlic": 5442,
      "idÃ©e": 5443,
      "Ġbasse": 5444,
      "oleil": 5445,
      "Ġlumi": 5446,
      "Ġmad": 5447,
      "ĠTim": 5448,
      "outer": 5449,
      "Ġavanc": 5450,
      "Ġâļ¡": 5451,
      "Ġconsomm": 5452,
      "Ġexterne": 5453,
      "ĠMÃ©daille": 5454,
      "Ġund": 5455,
      "Ġsynd": 5456,
      "ĠMarg": 5457,
      "ated": 5458,
      "ted": 5459,
      "ĠnommÃ©e": 5460,
      "ĠcomposÃ©e": 5461,
      "Ġ1961": 5462,
      "ĠðŁĳ¤": 5463,
      "ĠCre": 5464,
      "Ġinspi": 5465,
      "Ãªtres": 5466,
      "lt": 5467,
      "sÃ©rie": 5468,
      "erson": 5469,
      "Dame": 5470,
      "ĠGau": 5471,
      "ĠðŁĶ¬": 5472,
      "sivement": 5473,
      "ĠAcc": 5474,
      "matiques": 5475,
      "ĠfondÃ©": 5476,
      ".),": 5477,
      "ĠÃ©glise": 5478,
      "ocus": 5479,
      "Ġpouvait": 5480,
      "abbaye": 5481,
      "agnÃ©": 5482,
      "Ġveut": 5483,
      "rire": 5484,
      "Ġbrig": 5485,
      "flex": 5486,
      "Ġrecord": 5487,
      "ĠðŁıħ": 5488,
      "OM": 5489,
      "ĠEng": 5490,
      "ĠPuis": 5491,
      "indi": 5492,
      "CLC": 5493,
      "ĠHong": 5494,
      "Ġchose": 5495,
      "Ġouvert": 5496,
      "ridge": 5497,
      "imetiÃ¨re": 5498,
      "Ġillus": 5499,
      "Ã´les": 5500,
      "exist": 5501,
      "Ġtel": 5502,
      "ĠÃ®les": 5503,
      "har": 5504,
      "ĠdÃ©cision": 5505,
      "ĠrÃ©alisateur": 5506,
      "Ã©der": 5507,
      "ĠPy": 5508,
      "ĠRadi": 5509,
      "ologies": 5510,
      "ĠGold": 5511,
      "ĠrÃ¨g": 5512,
      "OR": 5513,
      "ep": 5514,
      "ĠAwards": 5515,
      "ĠsoviÃ©tique": 5516,
      "tiÃ¨me": 5517,
      "++": 5518,
      "ĠappelÃ©e": 5519,
      "arer": 5520,
      "ĠsupÃ©rieure": 5521,
      "veill": 5522,
      "ses": 5523,
      "Ġdesti": 5524,
      "Ġprincipales": 5525,
      "cu": 5526,
      "Ġnew": 5527,
      "ĠfondÃ©e": 5528,
      "Ġenfant": 5529,
      "Ġoffre": 5530,
      "ĠSuper": 5531,
      "irs": 5532,
      "linux": 5533,
      "ĠrÃ©uss": 5534,
      "item": 5535,
      "Ġlocal": 5536,
      "quoi": 5537,
      "esti": 5538,
      "ĠCli": 5539,
      "ĠPont": 5540,
      "ĠGÃ©nÃ©": 5541,
      "ĠParlement": 5542,
      "nent": 5543,
      "Å«": 5544,
      "Ġparents": 5545,
      "01": 5546,
      "ĠGas": 5547,
      "Ġ32": 5548,
      "EC": 5549,
      "histor": 5550,
      "ĠVen": 5551,
      "arrivÃ©e": 5552,
      "Ġidentif": 5553,
      "Ġait": 5554,
      "information": 5555,
      "Ġton": 5556,
      "ousse": 5557,
      "Ġconseiller": 5558,
      "rovi": 5559,
      "Ġyou": 5560,
      "Ġdoute": 5561,
      "Ġlois": 5562,
      "ĠRecords": 5563,
      "lav": 5564,
      "ĠðŁıĺï¸ı": 5565,
      "Ġcos": 5566,
      "ĠCri": 5567,
      "Ġbre": 5568,
      "upe": 5569,
      "Ã©lect": 5570,
      "ĠRet": 5571,
      "ĠVo": 5572,
      "load": 5573,
      "Ġtrain": 5574,
      "ĠMiss": 5575,
      "ĠÂ»)": 5576,
      "ĠâĶ": 5577,
      "ĠCaractÃ©ris": 5578,
      "ĠStar": 5579,
      "Ġoblig": 5580,
      "ape": 5581,
      "entin": 5582,
      "ĠColle": 5583,
      "Ġtre": 5584,
      "ĠlocalitÃ©": 5585,
      "âĢįðŁĳ¦": 5586,
      "Ġexcl": 5587,
      "dom": 5588,
      "Ġagricoles": 5589,
      "cia": 5590,
      "As": 5591,
      "Ġhauteur": 5592,
      "Ġpeinture": 5593,
      "Ġconfi": 5594,
      "Ġlutte": 5595,
      "ĠfaÃ§": 5596,
      "bie": 5597,
      "vue": 5598,
      "ĠFe": 5599,
      "iat": 5600,
      "Ġriv": 5601,
      "Ġsimil": 5602,
      "Ġpaix": 5603,
      "ĠjouÃ©": 5604,
      "ĠĠĠĠĠĠĠĠĠĠĠĠĠ": 5605,
      "ĠÃīv": 5606,
      "96": 5607,
      "Ġobjets": 5608,
      "iki": 5609,
      "not": 5610,
      "Ġprojets": 5611,
      "ĠLac": 5612,
      "Ġformes": 5613,
      "Ġpalais": 5614,
      "Ag": 5615,
      "otion": 5616,
      "éĢ": 5617,
      "Ġauteur": 5618,
      "imal": 5619,
      "hover": 5620,
      "Ġdos": 5621,
      "SA": 5622,
      "tical": 5623,
      "ĠCer": 5624,
      "Ġlargement": 5625,
      "DF": 5626,
      "Ġquoti": 5627,
      "ĠPic": 5628,
      "Ġapplications": 5629,
      "ĠÃ©tude": 5630,
      "ĠCamb": 5631,
      "ĠMusique": 5632,
      "monie": 5633,
      "ĠFrÃ©d": 5634,
      "gÃ©rie": 5635,
      "ĠMark": 5636,
      "aliforn": 5637,
      "ĠPatri": 5638,
      "UR": 5639,
      "Ġmaisons": 5640,
      "')": 5641,
      "mir": 5642,
      "Ġtravaill": 5643,
      "win": 5644,
      "activitÃ©": 5645,
      "ĠðŁĩ§": 5646,
      "adie": 5647,
      "Ġmanifest": 5648,
      "Ġneuf": 5649,
      "Ġgagn": 5650,
      "Ġcouleurs": 5651,
      "Ġcourant": 5652,
      "94": 5653,
      "Ġprol": 5654,
      "urr": 5655,
      "ĠrÃ©alisÃ©e": 5656,
      "ĠHo": 5657,
      "ĠPlusieurs": 5658,
      "erman": 5659,
      "æĪ": 5660,
      "ĠMuseum": 5661,
      "ĠUr": 5662,
      "ĠRoger": 5663,
      "ĠdÃ©buts": 5664,
      "ĠOff": 5665,
      "ĠÃ©crivain": 5666,
      "Ġamis": 5667,
      "ĠSynopsis": 5668,
      "ava": 5669,
      "ĠMalgrÃ©": 5670,
      "Ġparf": 5671,
      "seud": 5672,
      "Ġhon": 5673,
      "Jean": 5674,
      "Ã»t": 5675,
      "osph": 5676,
      "ffff": 5677,
      "ouveau": 5678,
      "Ġrece": 5679,
      "Ġ300": 5680,
      "ĠrÃ©alise": 5681,
      "acteur": 5682,
      "Ġchacun": 5683,
      "Ġjeunesse": 5684,
      "Ġreligieux": 5685,
      "Ġreprend": 5686,
      "ricitÃ©": 5687,
      "abeth": 5688,
      "Ġ1957": 5689,
      "Ġhyd": 5690,
      "Ġrecherches": 5691,
      "ĠPlan": 5692,
      "ĠRep": 5693,
      "Ġmascul": 5694,
      "ĠðŁİĵ": 5695,
      "Ġdiam": 5696,
      "Ġorb": 5697,
      "Ġsouhait": 5698,
      "ĠXVIIe": 5699,
      "ensitÃ©": 5700,
      "Ġurbaine": 5701,
      "Ġauton": 5702,
      "ĠutilisÃ©s": 5703,
      "ĠGÃ©r": 5704,
      "ĠToute": 5705,
      "iÃ¨ge": 5706,
      "ĠcommencÃ©": 5707,
      "aissent": 5708,
      "Ġressources": 5709,
      "Ġfaci": 5710,
      "ĠÃ©lector": 5711,
      "Ġnavire": 5712,
      "Ġarrive": 5713,
      "Ġparall": 5714,
      "ĠSitu": 5715,
      "entine": 5716,
      "Ġstock": 5717,
      "inique": 5718,
      "ĠBrÃ©sil": 5719,
      "ĠsÅĵur": 5720,
      "ceau": 5721,
      "97": 5722,
      "Ġvotre": 5723,
      "aro": 5724,
      "ĠAntoine": 5725,
      "ailleurs": 5726,
      "Ġbelle": 5727,
      "81": 5728,
      "Ġperdu": 5729,
      "bas": 5730,
      "Ġdispose": 5731,
      "ĠnÃ©er": 5732,
      "Ġ1954": 5733,
      "custom": 5734,
      "olÃ©on": 5735,
      "Ġglob": 5736,
      "ĠdurÃ©e": 5737,
      "Ġsav": 5738,
      "ĠderniÃ¨res": 5739,
      "ĠcaractÃ¨re": 5740,
      "ited": 5741,
      "Ġdevint": 5742,
      "Ġconstr": 5743,
      "Ġ(Â°": 5744,
      "Ã©nom": 5745,
      "Ġimages": 5746,
      "ĠconsidÃ©ra": 5747,
      "amin": 5748,
      "Ġpages": 5749,
      "ĠmatiÃ¨re": 5750,
      "Ġesti": 5751,
      "Ġhui": 5752,
      "ĠTok": 5753,
      "cier": 5754,
      "Ġsignal": 5755,
      "sibles": 5756,
      "BA": 5757,
      "ĠMarse": 5758,
      "unal": 5759,
      "Ġpron": 5760,
      "ĠCity": 5761,
      "uves": 5762,
      "ĠtournÃ©e": 5763,
      "Ġobtenu": 5764,
      "ĠfrontiÃ¨re": 5765,
      "Ġ1946": 5766,
      "ĠfrÃ¨res": 5767,
      "Ġmots": 5768,
      "ĠrÃ©serve": 5769,
      "ĠCaractÃ©ristiques": 5770,
      "ographe": 5771,
      "Ġinflu": 5772,
      "cht": 5773,
      "Ġroyale": 5774,
      "Ã©ritÃ©": 5775,
      "sbourg": 5776,
      "Pro": 5777,
      "ĠNi": 5778,
      "AmÃ©rique": 5779,
      "Ġbesoin": 5780,
      "association": 5781,
      "Ġspati": 5782,
      "Ġparten": 5783,
      "inal": 5784,
      "atherine": 5785,
      "nt": 5786,
      "Com": 5787,
      "ĠRed": 5788,
      "ski": 5789,
      "ĠeuropÃ©en": 5790,
      "ĠMou": 5791,
      "ĠGro": 5792,
      "Ġ1955": 5793,
      "Ġconcours": 5794,
      "Ġremarqu": 5795,
      "ĠÃ©vÃ©nements": 5796,
      "Ġpiano": 5797,
      "yo": 5798,
      "ML": 5799,
      "Ġgraph": 5800,
      "Ġaliment": 5801,
      "ĠlibertÃ©": 5802,
      "He": 5803,
      "Ġici": 5804,
      "Ġinstitu": 5805,
      "Ġmorte": 5806,
      "ĠsupplÃ©ment": 5807,
      "Ġordre": 5808,
      "ĠKing": 5809,
      "Ġ1936": 5810,
      "Ġprofond": 5811,
      "Ġpersonnel": 5812,
      "atch": 5813,
      "move": 5814,
      "Ġnu": 5815,
      "ĠthÃ©orie": 5816,
      "ĠAmerican": 5817,
      "assic": 5818,
      "whl": 5819,
      "lem": 5820,
      "erial": 5821,
      "fred": 5822,
      "gie": 5823,
      "iale": 5824,
      "dier": 5825,
      "Ġ1948": 5826,
      "cap": 5827,
      "Ġself": 5828,
      "chement": 5829,
      "Ġmaintenant": 5830,
      "ily": 5831,
      "Ġsom": 5832,
      "Ġdescend": 5833,
      "ĠBelle": 5834,
      "endemain": 5835,
      "Ġsemaine": 5836,
      "BI": 5837,
      "!==": 5838,
      "Ġconver": 5839,
      "ĠforÃªt": 5840,
      "azz": 5841,
      "ĠclassÃ©": 5842,
      "ĠðŁĳ¨âĢįðŁĳ©âĢįðŁĳ§": 5843,
      "ctu": 5844,
      "wood": 5845,
      "Ã©rÃ©e": 5846,
      "istant": 5847,
      "ĠRÃ©sul": 5848,
      "ĠdÃ©t": 5849,
      "Ġvoiture": 5850,
      "Ġcouple": 5851,
      "enue": 5852,
      "ĠÃ©vo": 5853,
      "ĠMarcel": 5854,
      "Ġrem": 5855,
      "Ġlabel": 5856,
      "traction": 5857,
      "span": 5858,
      "ĠSimon": 5859,
      "ĠAlexandre": 5860,
      "Ġprison": 5861,
      "ival": 5862,
      "Ġpape": 5863,
      "=!": 5864,
      "ĠRod": 5865,
      "Ġauto": 5866,
      "ĠGroupe": 5867,
      "gue": 5868,
      "erv": 5869,
      "-),": 5870,
      "Ġcui": 5871,
      "Ġmajor": 5872,
      "ĠðŁĸ¼": 5873,
      "Ġfant": 5874,
      "ĠLet": 5875,
      "ropol": 5876,
      "ĠMun": 5877,
      "ĠInternet": 5878,
      "AssemblÃ©e": 5879,
      "eries": 5880,
      "tream": 5881,
      "Ġthis": 5882,
      "ĠjournÃ©e": 5883,
      "ĠvÃ©ritable": 5884,
      "ĠremplacÃ©": 5885,
      "ĠÃ©levÃ©": 5886,
      "ĠMass": 5887,
      "Ġdynam": 5888,
      "ĠforÃªts": 5889,
      "Ġperformance": 5890,
      "ĠdÃ©putÃ©s": 5891,
      "Ġgui": 5892,
      "ĠTÃ©lÃ©": 5893,
      "Ġfilles": 5894,
      "Ġfamili": 5895,
      "aure": 5896,
      "Ġrepro": 5897,
      "animation": 5898,
      "*.": 5899,
      "unitÃ©": 5900,
      "ple": 5901,
      "ories": 5902,
      "Ġtoutefois": 5903,
      "ĠdÃ©clare": 5904,
      "ĠCatalogue": 5905,
      "ĠlumiÃ¨re": 5906,
      "é¡": 5907,
      "industrie": 5908,
      "Ġpopulations": 5909,
      "Ġchinois": 5910,
      "Ġconne": 5911,
      "ĠðŁĩ®ðŁĩ¹": 5912,
      "Ġray": 5913,
      "ĠMary": 5914,
      "Ġ1949": 5915,
      "Ġpetites": 5916,
      "Ġprim": 5917,
      "ume": 5918,
      "Ġterritoires": 5919,
      "Ġactuelle": 5920,
      "Ġtextes": 5921,
      "anniques": 5922,
      "ĠEmp": 5923,
      "Ne": 5924,
      "ĠðŁĶ¥": 5925,
      "osh": 5926,
      "Ġsingle": 5927,
      "body": 5928,
      "ĠrÃ©alitÃ©": 5929,
      "ĠProduction": 5930,
      "05": 5931,
      "Ġlendemain": 5932,
      "Ġcompositeur": 5933,
      "element": 5934,
      "ria": 5935,
      "Ġconfig": 5936,
      "Ġuniquement": 5937,
      "Ġdanse": 5938,
      "ĠarchÃ©": 5939,
      "Ġrasse": 5940,
      "ink": 5941,
      "ĠVienne": 5942,
      "Ġfamilles": 5943,
      "Ġpoly": 5944,
      "Ġimpos": 5945,
      "Ġmouvements": 5946,
      "ĠcÃ´te": 5947,
      "Ġsoir": 5948,
      "Ġscience": 5949,
      "sif": 5950,
      "ĠFont": 5951,
      "Ġjustice": 5952,
      "Ġmunicipal": 5953,
      "ĠFrÃ©dÃ©ric": 5954,
      "iÃ©e": 5955,
      "ĠNon": 5956,
      "Ġmadame": 5957,
      "Ġlyc": 5958,
      "riers": 5959,
      "ĠAllM": 5960,
      "Ĥge": 5961,
      "æķ": 5962,
      "ĠrÃ¨gne": 5963,
      "ĠLab": 5964,
      "ĠLien": 5965,
      "Ġmatin": 5966,
      "ĠCa": 5967,
      "Ġconstruite": 5968,
      "Ġconstitue": 5969,
      "ĠMath": 5970,
      "ado": 5971,
      "ĠgÃ©ographie": 5972,
      "ĠmÃ©decine": 5973,
      "Ġparam": 5974,
      "oÃ¹": 5975,
      "Ġmix": 5976,
      "Ġpi": 5977,
      "Ġjuste": 5978,
      "ĠfÃ©minin": 5979,
      "Ġretraite": 5980,
      "ĠentiÃ¨rement": 5981,
      "alifornie": 5982,
      "ĠactivitÃ©": 5983,
      "ĠcrÃ©e": 5984,
      "ĠUnion": 5985,
      "ĠCarol": 5986,
      "Ġrenom": 5987,
      "Ġsauv": 5988,
      "ĠHall": 5989,
      "Ã©tÃ©o": 5990,
      "çĽ®": 5991,
      "Ġcre": 5992,
      "Ġsignifie": 5993,
      "outes": 5994,
      "Ġ1952": 5995,
      "¡ï¸ı": 5996,
      "ried": 5997,
      "Ġ1947": 5998,
      "ĠPatrick": 5999,
      "Ã¢le": 6000,
      "intÃ©rÃªt": 6001,
      "EF": 6002,
      "Ġsert": 6003,
      "ĠSys": 6004,
      "Ã©roport": 6005,
      "ĠTex": 6006,
      "Ġautoris": 6007,
      "din": 6008,
      "åº": 6009,
      "onction": 6010,
      "ĠimmÃ©di": 6011,
      "âŃĲ": 6012,
      "Ġinaug": 6013,
      "Ġâļĸï¸ı": 6014,
      "importance": 6015,
      "ĠâĺĢ": 6016,
      "Ġarticles": 6017,
      "Ġdirect": 6018,
      "Ġnavires": 6019,
      "CP": 6020,
      "media": 6021,
      "ĠOut": 6022,
      "Ġconduit": 6023,
      "ota": 6024,
      "Ġ1953": 6025,
      "Ġfaveur": 6026,
      "py": 6027,
      "appr": 6028,
      "ĠðŁıĻ": 6029,
      "icrosoft": 6030,
      "Ġrevient": 6031,
      "umÃ©": 6032,
      "Ġparcours": 6033,
      "ĠsiÃ¨ges": 6034,
      "Ġmodernes": 6035,
      "ila": 6036,
      "ĠimpÃ©ri": 6037,
      "grand": 6038,
      "ĠunitÃ©": 6039,
      "irst": 6040,
      "Ġ1938": 6041,
      "Ã©bÃ©c": 6042,
      "Ġsorte": 6043,
      "Ġtermes": 6044,
      "Ġprofonde": 6045,
      "Ġmit": 6046,
      "Ġretrouv": 6047,
      "Ġ1937": 6048,
      "Ġchangement": 6049,
      "Ġstudio": 6050,
      "Ġdifficile": 6051,
      "St": 6052,
      "ĠEnfin": 6053,
      "Ġtypes": 6054,
      "ĠDÃ©mographie": 6055,
      "Ġtours": 6056,
      "entielle": 6057,
      "ida": 6058,
      "Ġtradition": 6059,
      "orph": 6060,
      "ĠIP": 6061,
      "miques": 6062,
      "Ġouvrage": 6063,
      "Ġrugby": 6064,
      "ĠarrÃªtÃ©": 6065,
      "Ġpoids": 6066,
      "Ġ1918": 6067,
      "aptiste": 6068,
      "Ġsuivantes": 6069,
      "Ġannuel": 6070,
      "AL": 6071,
      "ĠChambre": 6072,
      "Ġsaisons": 6073,
      "tiens": 6074,
      "Ġperformances": 6075,
      "ĠprivÃ©e": 6076,
      "ĠTourn": 6077,
      "Ġfranch": 6078,
      "ĠðŁĮ¿": 6079,
      "Ġniveaux": 6080,
      "Ġach": 6081,
      "ĠAfrique": 6082,
      "ĠLeur": 6083,
      "cÃ©e": 6084,
      "Ġminim": 6085,
      "ĠJournal": 6086,
      "empereur": 6087,
      "Ġchampionnats": 6088,
      "ĠCommun": 6089,
      "ero": 6090,
      "ella": 6091,
      "gnÃ©": 6092,
      "Ġnour": 6093,
      "ĠrÃ©comp": 6094,
      "Ġfabric": 6095,
      "ĠSaison": 6096,
      "ĠVainqueur": 6097,
      "Ġrelation": 6098,
      "yr": 6099,
      "Ġdiss": 6100,
      "etÃ©": 6101,
      "omo": 6102,
      "Ġfutur": 6103,
      "mm": 6104,
      "ĠGalerie": 6105,
      "Ġinte": 6106,
      "oyer": 6107,
      "ĠrÃª": 6108,
      "ĠAlain": 6109,
      "ÃŃa": 6110,
      "ĠRadio": 6111,
      "Äį": 6112,
      "Ġarmes": 6113,
      "ĠðŁıĹ": 6114,
      "Ġsuperficie": 6115,
      "icale": 6116,
      "ĠInf": 6117,
      "Ġaffaires": 6118,
      "ĠPolitique": 6119,
      "iser": 6120,
      "ĠBÃ©": 6121,
      "roll": 6122,
      "tistiques": 6123,
      "Ġvoc": 6124,
      "ĠlÃ©gislatives": 6125,
      "Ġseront": 6126,
      "ĠXIV": 6127,
      "Ġquoi": 6128,
      "ĠðŁĳ¨âĢįðŁ": 6129,
      "åı¯": 6130,
      "prot": 6131,
      "ĠAux": 6132,
      "ĠDictionnaire": 6133,
      "Ġprisonn": 6134,
      "title": 6135,
      "ĠXVIe": 6136,
      "olo": 6137,
      "ĠLorsque": 6138,
      "ĠcÃ©lÃ©": 6139,
      "ety": 6140,
      "tements": 6141,
      "Ġlimite": 6142,
      "Ã©drale": 6143,
      "tifici": 6144,
      "ĠQuand": 6145,
      "Ġcivile": 6146,
      "astÃ©roÃ¯": 6147,
      "ĠÃ©vÃªque": 6148,
      "Ġgouverneur": 6149,
      "Ġja": 6150,
      "SP": 6151,
      "ĠRel": 6152,
      "ĠChaque": 6153,
      "ĠÃ©cole": 6154,
      "Ġgrav": 6155,
      "ĠrÃ©public": 6156,
      "Ġsil": 6157,
      "ĠCÃ´": 6158,
      "Ġresponsable": 6159,
      "Ĥ¬": 6160,
      "Ã©pendance": 6161,
      "Ġferrovi": 6162,
      "terie": 6163,
      "ĠastÃ©roÃ¯de": 6164,
      "mus": 6165,
      "omÃ©t": 6166,
      "Ġfid": 6167,
      "Ġruis": 6168,
      "Ġcaus": 6169,
      "Ġchevaux": 6170,
      "Ġmagazine": 6171,
      "BC": 6172,
      "MI": 6173,
      "Ġratta": 6174,
      "Ġlocaux": 6175,
      "Ġ?**": 6176,
      "ĠRÃ©sultats": 6177,
      "onner": 6178,
      "Ġnavig": 6179,
      "ĠBrit": 6180,
      "mail": 6181,
      "ĠðŁĹ£ï¸ı": 6182,
      "Ġconflit": 6183,
      "02": 6184,
      "ĠBob": 6185,
      "uclÃ©": 6186,
      "ev": 6187,
      "iÃ©s": 6188,
      "Ġcra": 6189,
      "ibre": 6190,
      "å¼Ģ": 6191,
      "Ġ\",": 6192,
      "thur": 6193,
      "Ġfinal": 6194,
      "cuit": 6195,
      "Paul": 6196,
      "ĠNous": 6197,
      "rien": 6198,
      "ĠðŁı¢": 6199,
      "ĠspÃ©cifique": 6200,
      "03": 6201,
      "oure": 6202,
      "oÃ«l": 6203,
      "Ġpage": 6204,
      "uls": 6205,
      "ĠĠĠĠĠĠĠĠĠĠĠĠĠĠĠĠĠĠĠĠĠĠĠĠĠĠĠĠĠĠĠĠ": 6206,
      "Ġquin": 6207,
      "ĠðŁıĻï¸ı": 6208,
      "ĠcimetiÃ¨re": 6209,
      "Con": 6210,
      "Ġsemaines": 6211,
      "ĴĮ": 6212,
      "fil": 6213,
      "Ġ33": 6214,
      "once": 6215,
      "Ġinclu": 6216,
      "Ã©rant": 6217,
      "ĠformÃ©": 6218,
      "Ġmandat": 6219,
      "Ġpeint": 6220,
      "arrondissement": 6221,
      "ĠrÃ©par": 6222,
      "mile": 6223,
      "Ġdiffusion": 6224,
      "Ġvieux": 6225,
      "Ġlieutenant": 6226,
      "ĠAlle": 6227,
      "Ġbomb": 6228,
      "Art": 6229,
      "ius": 6230,
      "Ġaction": 6231,
      "raire": 6232,
      "icro": 6233,
      "ĠSand": 6234,
      "hou": 6235,
      "ffe": 6236,
      "2020": 6237,
      "gÃ©n": 6238,
      "ĠÏ": 6239,
      "Ġtient": 6240,
      "orial": 6241,
      "Ġques": 6242,
      "Il": 6243,
      "ĠDar": 6244,
      "Ġ1951": 6245,
      "quin": 6246,
      "ĠÃ©tablis": 6247,
      "Ð»": 6248,
      "Ġnone": 6249,
      "Ġcontient": 6250,
      "Ġfi": 6251,
      "ĠBretagne": 6252,
      "actions": 6253,
      "ology": 6254,
      "field": 6255,
      "ĠMarseille": 6256,
      "Ġfle": 6257,
      "ĠâļĻï¸ı": 6258,
      "ĠrÃ©el": 6259,
      "ĠAutres": 6260,
      "can": 6261,
      "Ġoriginaire": 6262,
      "Ġutilisateurs": 6263,
      "aki": 6264,
      "Ġpublication": 6265,
      "Ġpay": 6266,
      "Ġvin": 6267,
      "lines": 6268,
      "phe": 6269,
      "armes": 6270,
      "ĠrÃ©guliÃ¨rement": 6271,
      "cop": 6272,
      "imm": 6273,
      "Ġmoin": 6274,
      "ĠarmÃ©es": 6275,
      "EP": 6276,
      "elli": 6277,
      "Ġuse": 6278,
      "Ġhand": 6279,
      "ĠToulouse": 6280,
      "ĠtÃ¢": 6281,
      "ĠIr": 6282,
      "rome": 6283,
      "ordeaux": 6284,
      "uÃ©": 6285,
      "Ãº": 6286,
      "telligence": 6287,
      "Ġcommandement": 6288,
      "Ġobser": 6289,
      "Ġparler": 6290,
      "Ġaccus": 6291,
      "Ġcomplexe": 6292,
      "anges": 6293,
      "inn": 6294,
      "ĠAssociation": 6295,
      "Ġparle": 6296,
      "rey": 6297,
      "Ã©tÃ©or": 6298,
      "ĠHans": 6299,
      "ĠÃ©di": 6300,
      "Ġreten": 6301,
      "Ġtraduction": 6302,
      "Ġimportants": 6303,
      "07": 6304,
      "lind": 6305,
      "Type": 6306,
      "itime": 6307,
      "ĠCertains": 6308,
      "ĠCD": 6309,
      "Ġstring": 6310,
      "ĠBerg": 6311,
      "math": 6312,
      "ĠDÃ©b": 6313,
      "Ġrejoindre": 6314,
      "riculture": 6315,
      "ieuses": 6316,
      "ĠrÃ©gional": 6317,
      "ĠAth": 6318,
      "alli": 6319,
      "habit": 6320,
      "ouvenir": 6321,
      "assade": 6322,
      "ĠAnth": 6323,
      "Ġbureau": 6324,
      "Ã©nario": 6325,
      "ĠpoÃ¨te": 6326,
      "hr": 6327,
      "Ġcrise": 6328,
      "Ġhockey": 6329,
      "Ġdisposi": 6330,
      "AF": 6331,
      "ĠdÃ©ch": 6332,
      "ĠCommission": 6333,
      "pend": 6334,
      "alse": 6335,
      "illy": 6336,
      "esses": 6337,
      "âĢįâļ": 6338,
      "Ġfavor": 6339,
      "ĠRam": 6340,
      "Ġâ¬": 6341,
      "Ġsch": 6342,
      "ĠrÃ©partition": 6343,
      "ĠðŁĳ¨âĢįðŁĳ©âĢįðŁĳ§âĢįðŁĳ¦": 6344,
      "ĠFab": 6345,
      "venir": 6346,
      "dies": 6347,
      "lÃ©gu": 6348,
      "test": 6349,
      "ĠdessinÃ©e": 6350,
      "ppe": 6351,
      "ĠLÃ©": 6352,
      "aya": 6353,
      "Orient": 6354,
      "Ġdiv": 6355,
      "logo": 6356,
      "agu": 6357,
      "ĠTou": 6358,
      "ĠPortu": 6359,
      "Ġciel": 6360,
      "euve": 6361,
      "ĠGer": 6362,
      "ĠdÃ©cÃ©dÃ©": 6363,
      "amÃ©ric": 6364,
      "Ġplein": 6365,
      "Ġajou": 6366,
      "atus": 6367,
      "Ġmesures": 6368,
      "ĠWind": 6369,
      "ĠliÃ©es": 6370,
      "Ġregroupe": 6371,
      "aka": 6372,
      "ĠdÃ©faite": 6373,
      "arque": 6374,
      "2014": 6375,
      "ĠproblÃ¨me": 6376,
      "ĠclÃ©": 6377,
      "ĠEspagne": 6378,
      "Ġjardin": 6379,
      "Ġ1933": 6380,
      "Ġsommet": 6381,
      "ĠcomÃ©die": 6382,
      "ĠopÃ©rations": 6383,
      "ED": 6384,
      "Ġdimin": 6385,
      "ĠmÃ©decin": 6386,
      "Ġsuisse": 6387,
      "hat": 6388,
      "ĠlittÃ©raire": 6389,
      "ĠTar": 6390,
      "onnÃ©e": 6391,
      "Ġexempl": 6392,
      "04": 6393,
      "tish": 6394,
      "Ġreine": 6395,
      "ĠðŁĩ«ðŁĩ·,": 6396,
      "Ġcumul": 6397,
      "ĠrÃ©sultat": 6398,
      "Ġbate": 6399,
      "ĠBir": 6400,
      "fiques": 6401,
      "ĠsÃ»": 6402,
      "Ġvictoires": 6403,
      "æĶ": 6404,
      "ĠPetit": 6405,
      "ä¹": 6406,
      "ĠunitÃ©s": 6407,
      "ima": 6408,
      "gÃ©e": 6409,
      "Ġsoient": 6410,
      "MA": 6411,
      "Ġvar": 6412,
      "onnement": 6413,
      "Ġpublics": 6414,
      "Ã©conomie": 6415,
      "Ġaxe": 6416,
      "ĠPap": 6417,
      "Ġmanque": 6418,
      "ĠgÃ©nÃ©ration": 6419,
      "ield": 6420,
      "Ġsignific": 6421,
      "ĠSS": 6422,
      "ĠConc": 6423,
      "\").": 6424,
      "Ġdiscip": 6425,
      "Ġenvironnement": 6426,
      "endra": 6427,
      "Ġnouvel": 6428,
      "qua": 6429,
      "ocat": 6430,
      "ĠmÃ©thode": 6431,
      "ĠautoritÃ©s": 6432,
      "ĠJules": 6433,
      "major": 6434,
      "ragon": 6435,
      "Ġpost": 6436,
      "oÃ¯v": 6437,
      "Ab": 6438,
      "Ġcoupe": 6439,
      "TA": 6440,
      "Ġenne": 6441,
      "iterran": 6442,
      "Ġbot": 6443,
      "entitÃ©": 6444,
      "Ġparoisse": 6445,
      "ĠMen": 6446,
      "ĠMÃ©tÃ©o": 6447,
      "aptis": 6448,
      "Ġstade": 6449,
      "ĠðŁĴĢ": 6450,
      "Ġpermettre": 6451,
      "Ã©ducation": 6452,
      "ĠquÃ©bÃ©c": 6453,
      "Ġcart": 6454,
      "rÃ©sentation": 6455,
      "ultan": 6456,
      "ĠLis": 6457,
      "ĠAngleterre": 6458,
      "Ġperman": 6459,
      "ĠMeilleur": 6460,
      "Ġtotale": 6461,
      "GP": 6462,
      "ĠðŁ§ª": 6463,
      "vez": 6464,
      "fiÃ©": 6465,
      "ĠÅĴuvres": 6466,
      "ĠCop": 6467,
      "ĠTch": 6468,
      "Ġscol": 6469,
      "ĠLove": 6470,
      "ĠBert": 6471,
      "inger": 6472,
      "olet": 6473,
      "usage": 6474,
      "ĠdÃ»": 6475,
      "ĠChic": 6476,
      "ĠRol": 6477,
      "Ġchanteur": 6478,
      "ĠmÃ©tro": 6479,
      "ĠHan": 6480,
      "ĠAlloc": 6481,
      "Ġpilote": 6482,
      "Ġfru": 6483,
      "ĠOlymp": 6484,
      "rep": 6485,
      "Ġjur": 6486,
      "lais": 6487,
      "Ġguer": 6488,
      "ĠparticipÃ©": 6489,
      "ĠEug": 6490,
      "RC": 6491,
      "ands": 6492,
      "ĠService": 6493,
      "ĠdÃ©veloppÃ©": 6494,
      "oct": 6495,
      "hÃ´tel": 6496,
      "Ã©pisode": 6497,
      "jan": 6498,
      "gyp": 6499,
      "Ã©ta": 6500,
      "Ġreconnaissance": 6501,
      "âĢįâĻĢï¸ı": 6502,
      "Ġpassant": 6503,
      "illÃ©e": 6504,
      "Ġprincipe": 6505,
      "ĠcaractÃ©risÃ©e": 6506,
      "typeof": 6507,
      "Ġcontinent": 6508,
      "ariat": 6509,
      "Ġutilisant": 6510,
      "ĠvÃ©hicules": 6511,
      "criptions": 6512,
      "!...": 6513,
      "Ġconception": 6514,
      "ĠDub": 6515,
      "Ġvolume": 6516,
      "ĠMoscou": 6517,
      "Ã©rÃ©s": 6518,
      "ĠÃ©lectrique": 6519,
      "has": 6520,
      "ĠRock": 6521,
      "tax": 6522,
      "oks": 6523,
      "Ġferme": 6524,
      "Ġvais": 6525,
      "lation": 6526,
      "Ġmaladie": 6527,
      "ĠlycÃ©e": 6528,
      "Ġprotest": 6529,
      "uisant": 6530,
      "ĠSmith": 6531,
      "Ġpan": 6532,
      "Ġcla": 6533,
      "Ġcertaine": 6534,
      "iger": 6535,
      "Ġautant": 6536,
      "ĠOpen": 6537,
      "ĠWash": 6538,
      "ĠDistin": 6539,
      "ĠtÃ©moign": 6540,
      "Ġformer": 6541,
      "ĠarmÃ©e": 6542,
      "espÃ¨ce": 6543,
      "ĠconnaÃ®t": 6544,
      "cesseur": 6545,
      "lÃ¨ves": 6546,
      "Ġitalienne": 6547,
      "hor": 6548,
      "ĠnumÃ©rique": 6549,
      "ĠBab": 6550,
      "Ġcach": 6551,
      "ĠTemp": 6552,
      "group": 6553,
      "ĠBordeaux": 6554,
      "ĠPC": 6555,
      "ilier": 6556,
      "Ġfunction": 6557,
      ")},": 6558,
      "wa": 6559,
      "transition": 6560,
      "Ġfonde": 6561,
      "icat": 6562,
      "itan": 6563,
      "Ġhommage": 6564,
      "ĠGabri": 6565,
      "Ġinclus": 6566,
      "Ġcandidat": 6567,
      "Ġvente": 6568,
      "irent": 6569,
      "Ã©nie": 6570,
      "tesse": 6571,
      "lov": 6572,
      "Ġflex": 6573,
      "tiennent": 6574,
      "Ġportes": 6575,
      "gr": 6576,
      "Ġdocuments": 6577,
      "Ġriche": 6578,
      "Ġfondation": 6579,
      "08": 6580,
      "Ġphilosophie": 6581,
      "İle": 6582,
      "ĠpubliÃ©e": 6583,
      "Ã®tre": 6584,
      "Ġpropres": 6585,
      "ðŁĩ±": 6586,
      "agÃ©e": 6587,
      "utation": 6588,
      "ĠInstitu": 6589,
      "ĠLoire": 6590,
      "ĠBor": 6591,
      "ĠHel": 6592,
      "Ġconnaissance": 6593,
      "¤ĿâĢįðŁ": 6594,
      "Ġvillages": 6595,
      "];": 6596,
      "lot": 6597,
      "Ġfonds": 6598,
      "FranÃ§ois": 6599,
      "ĠpropriÃ©taire": 6600,
      "Ġplantes": 6601,
      "ĠComitÃ©": 6602,
      "Ġactuellement": 6603,
      "ĠcoÃ»": 6604,
      "¤ĿâĢįðŁ§ĳ": 6605,
      "Ġartifici": 6606,
      "ĠðŁĳ©": 6607,
      "ju": 6608,
      "Ġtrouvent": 6609,
      "Ġesc": 6610,
      "ĠĠĠĠĠĠĠĠĠĠĠĠĠĠĠĠĠ": 6611,
      "NC": 6612,
      "Ø§": 6613,
      "ĠDra": 6614,
      "tissement": 6615,
      "ĠArts": 6616,
      "uth": 6617,
      "Ã¢t": 6618,
      "Ġcontexte": 6619,
      "valid": 6620,
      "frac": 6621,
      "Arg": 6622,
      "ĠColomb": 6623,
      "ĠÃ©tabli": 6624,
      "exploitation": 6625,
      "ĠTous": 6626,
      "Ġmarche": 6627,
      "Element": 6628,
      "uels": 6629,
      "ĠarriÃ¨re": 6630,
      "Ġsuivants": 6631,
      "auc": 6632,
      "osant": 6633,
      "ĠdÃ©roule": 6634,
      "Ġaller": 6635,
      "ĠMarine": 6636,
      "Ġmusicale": 6637,
      "ĥ½": 6638,
      "Ã¨gre": 6639,
      "ĠSources": 6640,
      "Ph": 6641,
      "åį": 6642,
      "ĠprÃ©sentÃ©": 6643,
      "ĠAllocinÃ©": 6644,
      "ĠaccÃ¨s": 6645,
      "hel": 6646,
      "tue": 6647,
      "ĠbasÃ©": 6648,
      "£o": 6649,
      "nel": 6650,
      "inv": 6651,
      "obles": 6652,
      "ĠTu": 6653,
      "Ġinfrastru": 6654,
      "Ã¼r": 6655,
      "Ġafric": 6656,
      "ĠcomitÃ©": 6657,
      "ĠFern": 6658,
      "Ã©nagement": 6659,
      "PL": 6660,
      "Ġpoursu": 6661,
      "Ġrive": 6662,
      "Ġconcert": 6663,
      "asi": 6664,
      "ĠMes": 6665,
      "ĠðŁĵº": 6666,
      "Ġouvrages": 6667,
      "ĠÃĤge": 6668,
      "ĠDur": 6669,
      "haus": 6670,
      "initi": 6671,
      "ĠmÃ©tÃ©or": 6672,
      "Ġcommission": 6673,
      "Ġinves": 6674,
      "ĠBoy": 6675,
      "ĠNations": 6676,
      "ĠdÃ©cret": 6677,
      "Ġculturel": 6678,
      "Val": 6679,
      "rot": 6680,
      "ĠQuelques": 6681,
      "hiver": 6682,
      "liers": 6683,
      "ĠdÃ©v": 6684,
      "Ġ1932": 6685,
      "acte": 6686,
      "ĠSab": 6687,
      "rdre": 6688,
      "ancy": 6689,
      "environnement": 6690,
      "Ġsubs": 6691,
      "hÃ©r": 6692,
      "Ġjud": 6693,
      "astron": 6694,
      "Ġ1935": 6695,
      "Ġ/**": 6696,
      "lent": 6697,
      "Ġexer": 6698,
      "exposition": 6699,
      "Ġconcent": 6700,
      "zer": 6701,
      "ĠToutefois": 6702,
      "acity": 6703,
      "items": 6704,
      "esc": 6705,
      "Ġplaces": 6706,
      "angle": 6707,
      "ĠDo": 6708,
      "Ġinitialement": 6709,
      "istÃ©": 6710,
      "Ġit": 6711,
      "paravant": 6712,
      "Ġautomatique": 6713,
      "ĠDun": 6714,
      "Ã©rale": 6715,
      "ĠsÃ©ries": 6716,
      "ĠdÃ©cor": 6717,
      "Ġnat": 6718,
      "input": 6719,
      "Ġofficielle": 6720,
      "incl": 6721,
      "Ġactions": 6722,
      "ĠLee": 6723,
      "mid": 6724,
      "Ġ34": 6725,
      "Ġappli": 6726,
      "ĠðŁĴ¼": 6727,
      "ĠPhot": 6728,
      "Ġorgan": 6729,
      "ophone": 6730,
      "Ġinconn": 6731,
      "olie": 6732,
      "Ġquanti": 6733,
      "ster": 6734,
      "esprit": 6735,
      "Ġatti": 6736,
      "Ġpauvre": 6737,
      "ĠErn": 6738,
      "Ġvoies": 6739,
      "Ġ36": 6740,
      ")),": 6741,
      "iner": 6742,
      "ĠexÃ©cu": 6743,
      "Ġpati": 6744,
      "ĠLar": 6745,
      "ĠMme": 6746,
      "jus": 6747,
      "ĠCalifornie": 6748,
      "Ġfen": 6749,
      "Ġmajeur": 6750,
      "rown": 6751,
      "Ġcivil": 6752,
      "artiste": 6753,
      "Ġvont": 6754,
      "ĠIT": 6755,
      "olis": 6756,
      "ĠcinquiÃ¨me": 6757,
      "Ġquestions": 6758,
      "Ã©ron": 6759,
      "ĠdÃ©nom": 6760,
      "ĠnuclÃ©": 6761,
      "thumb": 6762,
      "ĠNik": 6763,
      "Ġbu": 6764,
      "ĠðŁĩ¦": 6765,
      "Ġprati": 6766,
      "ĠNorth": 6767,
      "ĠNapolÃ©on": 6768,
      "é¡¹": 6769,
      "avantage": 6770,
      "æŀ": 6771,
      "Ġaffec": 6772,
      "Ġsecondes": 6773,
      "Ġglace": 6774,
      "amme": 6775,
      "oÃ¯vodie": 6776,
      "ĠXX": 6777,
      "Ġ1934": 6778,
      "Ã§ons": 6779,
      "ĠphÃ©nom": 6780,
      "ĠWashington": 6781,
      "Brain": 6782,
      "Ġpleine": 6783,
      "prototype": 6784,
      "Ġath": 6785,
      "ĠGil": 6786,
      "Trans": 6787,
      "yst": 6788,
      "Ġvaste": 6789,
      "Ġprofessionnelle": 6790,
      "Ġfondateur": 6791,
      "Car": 6792,
      "kov": 6793,
      "Ġaltern": 6794,
      "Ġ48": 6795,
      "Ã©tudes": 6796,
      "parent": 6797,
      "agers": 6798,
      "aceae": 6799,
      "ancer": 6800,
      "Ġpartage": 6801,
      "ĠJÃ©r": 6802,
      "Ġscientifiques": 6803,
      "Ġ1919": 6804,
      "douard": 6805,
      "astÃ©roÃ¯des": 6806,
      "ĠrÃ©cup": 6807,
      "ĠFort": 6808,
      "ĠÃ©coles": 6809,
      "ĠPark": 6810,
      "Ġtechnologie": 6811,
      "Ġfile": 6812,
      "ĠFou": 6813,
      "ĠcontrÃ´": 6814,
      "Ġexploit": 6815,
      "attaque": 6816,
      "wind": 6817,
      "ĠorganisÃ©": 6818,
      "ĠCongrÃ¨s": 6819,
      "Ġfortement": 6820,
      "ĠdiamÃ¨tre": 6821,
      "Ġsouver": 6822,
      "ĠAngeles": 6823,
      "Ġamp": 6824,
      "aga": 6825,
      "ĠJer": 6826,
      "Ġanciennes": 6827,
      "Ġtravailler": 6828,
      "ĠsÃ©n": 6829,
      "angÃ©": 6830,
      "Ġmajeure": 6831,
      "Ġconsommation": 6832,
      "child": 6833,
      "ĠJim": 6834,
      "issait": 6835,
      "ĠJon": 6836,
      "Ġcolonel": 6837,
      "Ġreligion": 6838,
      "Brainz": 6839,
      "æĿ": 6840,
      "Inter": 6841,
      "ĠMusicBrainz": 6842,
      "Ġarrondissement": 6843,
      "ĠðŁĩ·": 6844,
      "ĠðŁ§ĳâĢįðŁ¤ĿâĢįðŁ§ĳ": 6845,
      "Ġ_{": 6846,
      "ĠnÃ©goci": 6847,
      "Ġgaranti": 6848,
      "Ġ1929": 6849,
      "ET": 6850,
      "ĠcompÃ©t": 6851,
      "Ġmoyens": 6852,
      "ilipp": 6853,
      "ĠprocÃ¨s": 6854,
      "Ġnoire": 6855,
      "Ġâŀ": 6856,
      "geois": 6857,
      "ĠDam": 6858,
      "ĠrÃ©sistance": 6859,
      "+\"": 6860,
      "hol": 6861,
      "vey": 6862,
      "ĠRot": 6863,
      "Ġmonast": 6864,
      "ĠGÃ©rard": 6865,
      "focus": 6866,
      "Ġdevenue": 6867,
      "Ġconstruire": 6868,
      "ĠCir": 6869,
      "Ġcavalerie": 6870,
      "ache": 6871,
      "remove": 6872,
      "Ġmarine": 6873,
      "Ġentreprise": 6874,
      "Ġpolonais": 6875,
      "ea": 6876,
      "altitude": 6877,
      "ĠPalais": 6878,
      "hors": 6879,
      "jour": 6880,
      "ĠvÃ©g": 6881,
      "__": 6882,
      "Ġmasse": 6883,
      "alys": 6884,
      "ĠGrÃ¨ce": 6885,
      "Ġremont": 6886,
      "ĠmÃªmes": 6887,
      "ĠdÃ©mar": 6888,
      "Ġrelie": 6889,
      "head": 6890,
      "ĠÃ§": 6891,
      "analyse": 6892,
      "inaison": 6893,
      "asser": 6894,
      "Ġsor": 6895,
      "Īï¸ı": 6896,
      "Ġparis": 6897,
      "Ġbiens": 6898,
      "Ġfaits": 6899,
      "ĠNet": 6900,
      "accord": 6901,
      "Ĵ¼": 6902,
      "rÃ©m": 6903,
      "ĠÃ©lÃ¨ves": 6904,
      "ĠthÃ¨me": 6905,
      "ĠAv": 6906,
      "Ã©criture": 6907,
      "é¡¹çĽ®": 6908,
      "dent": 6909,
      "à¸": 6910,
      "å·": 6911,
      "ĠNC": 6912,
      "Ġĉĉĉĉĉ": 6913,
      "Ġtran": 6914,
      "è§": 6915,
      "sons": 6916,
      "Ġfrapp": 6917,
      "yg": 6918,
      "....": 6919,
      "ĠÃ©volue": 6920,
      "Ġ1917": 6921,
      "conomie": 6922,
      "Ġpois": 6923,
      "ĠidÃ©": 6924,
      "radi": 6925,
      "ĠPri": 6926,
      "ĠBat": 6927,
      "ĠtuÃ©": 6928,
      "bat": 6929,
      "Ġdisponible": 6930,
      "mÃ©t": 6931,
      "ĠdÃ©signer": 6932,
      "isÃ©": 6933,
      "ĠMexique": 6934,
      "ally": 6935,
      "Ġparu": 6936,
      "Ġthat": 6937,
      "allery": 6938,
      "clam": 6939,
      "09": 6940,
      "Ġessentiellement": 6941,
      "Ġmineures": 6942,
      "sage": 6943,
      "æĹ": 6944,
      "many": 6945,
      "autom": 6946,
      "iteurs": 6947,
      "ĠmarquÃ©": 6948,
      "ĠRy": 6949,
      "Ġmeilleurs": 6950,
      "ĠCass": 6951,
      "Ġbourg": 6952,
      "auss": 6953,
      "Ġtente": 6954,
      "ĠTV": 6955,
      "uxemb": 6956,
      "ĠðŁĹ³": 6957,
      "wan": 6958,
      "ecture": 6959,
      "indÃ©pendance": 6960,
      "ĠmathÃ©ma": 6961,
      "OC": 6962,
      "Ġsomme": 6963,
      "To": 6964,
      "ĠBol": 6965,
      "aliser": 6966,
      "Ġregroup": 6967,
      "tillerie": 6968,
      "ĠCab": 6969,
      "Ġanimaux": 6970,
      "oggle": 6971,
      "Ġsatell": 6972,
      "Ġlesquels": 6973,
      "omes": 6974,
      "ĠCatherine": 6975,
      "Ġ%,": 6976,
      "acts": 6977,
      "mettre": 6978,
      "vence": 6979,
      "ĠSk": 6980,
      "ctur": 6981,
      "vet": 6982,
      "ĠmatÃ©riel": 6983,
      "material": 6984,
      "Ġtransp": 6985,
      "ĠprÃ©p": 6986,
      "tings": 6987,
      "Ġmessage": 6988,
      "uite": 6989,
      "peur": 6990,
      "reuves": 6991,
      "ĠHor": 6992,
      "ĠPÃ©": 6993,
      "Ġalg": 6994,
      "bg": 6995,
      "sim": 6996,
      "Ġparticiper": 6997,
      "ĠAp": 6998,
      "tionnelle": 6999,
      "ĠgÃ©ographique": 7000,
      "archite": 7001,
      "['": 7002,
      "ĠExp": 7003,
      "lai": 7004,
      "observ": 7005,
      "rains": 7006,
      "enberg": 7007,
      "ĠRa": 7008,
      "Ã©riques": 7009,
      "Ġcomplet": 7010,
      "Ġimpli": 7011,
      "airement": 7012,
      "Ġlogici": 7013,
      "Ġkg": 7014,
      "Ġproducteur": 7015,
      "ĠStre": 7016,
      "Ġvainqueur": 7017,
      "ĠvoÃ¯vodie": 7018,
      "Ġchoses": 7019,
      "Ġactuel": 7020,
      "ĠdÃ©signe": 7021,
      "ĠmarquÃ©e": 7022,
      "Ġparvient": 7023,
      "ĠBibliothÃ¨que": 7024,
      "agon": 7025,
      "Ã©quip": 7026,
      "ĠconÃ§u": 7027,
      "ĠrÃ©volution": 7028,
      "inÃ©e": 7029,
      "Ġchute": 7030,
      "ierge": 7031,
      "Ġstandard": 7032,
      "Ġ1931": 7033,
      "landaise": 7034,
      "alla": 7035,
      "ssage": 7036,
      "ĠrÃ©publique": 7037,
      "ĠÃ©tudiants": 7038,
      "tils": 7039,
      "ĠBata": 7040,
      "quare": 7041,
      "ĠSÃ©": 7042,
      "ĠMore": 7043,
      "Ġromaine": 7044,
      "ĠNouveau": 7045,
      "ez": 7046,
      "voie": 7047,
      "kit": 7048,
      "Ġdouze": 7049,
      "El": 7050,
      "ĠÃ©lÃ©ment": 7051,
      "oule": 7052,
      "atoires": 7053,
      "Ġrock": 7054,
      "Ġcanal": 7055,
      "ĠconstituÃ©": 7056,
      "oudre": 7057,
      "ĠMÃ©m": 7058,
      "Ġsys": 7059,
      "Ġscore": 7060,
      "è¡": 7061,
      "ĠLaur": 7062,
      "Ġtrafic": 7063,
      "MP": 7064,
      "aria": 7065,
      "ĠrÃ©alisation": 7066,
      "ĠðŁ¥Ī": 7067,
      "ĠimmÃ©diate": 7068,
      "Ġly": 7069,
      "Ġtor": 7070,
      "ĠCra": 7071,
      "Ġfleurs": 7072,
      "Ġconcept": 7073,
      "Ġplais": 7074,
      "euros": 7075,
      "ĠPersonnalitÃ©s": 7076,
      "Ġvert": 7077,
      "Ġprintemps": 7078,
      "Ġlaisse": 7079,
      "Ġfrancs": 7080,
      "pole": 7081,
      "ĠSociety": 7082,
      "Ġpression": 7083,
      "Ġruisseau": 7084,
      "Ġ1928": 7085,
      "ĠKn": 7086,
      "ĠmaÃ®tres": 7087,
      "cd": 7088,
      "Ġcuis": 7089,
      "ĠMed": 7090,
      "Ġsucces": 7091,
      "aissances": 7092,
      "Ġreprise": 7093,
      "ĠLaurent": 7094,
      "Ġther": 7095,
      "tionnel": 7096,
      "Ġlangage": 7097,
      "Ġimportantes": 7098,
      "ĠInstitute": 7099,
      "ĠEli": 7100,
      "enfant": 7101,
      "ĠGoogle": 7102,
      "ultÃ©s": 7103,
      "ĠdÃ©bute": 7104,
      "Ġformat": 7105,
      "Ġoccasion": 7106,
      "inguis": 7107,
      "Ġsociales": 7108,
      "agog": 7109,
      "ĠRÃ©c": 7110,
      "amen": 7111,
      "ĠPeu": 7112,
      "Er": 7113,
      "Ġabsolu": 7114,
      "æĺ¯": 7115,
      "}}}": 7116,
      "åĽ": 7117,
      "Ġç": 7118,
      "Ġhos": 7119,
      "ducteur": 7120,
      "issue": 7121,
      "Ġfleuve": 7122,
      "manylinux": 7123,
      "chÃ©s": 7124,
      "Ġ1925": 7125,
      "Ġcong": 7126,
      "manie": 7127,
      "zz": 7128,
      "alistes": 7129,
      ",\"": 7130,
      "ĠPa": 7131,
      "Ġguitare": 7132,
      "']": 7133,
      "Ġu": 7134,
      "ardinal": 7135,
      "hip": 7136,
      "ĠdÃ©mont": 7137,
      "Ġferroviaire": 7138,
      "Ã©lev": 7139,
      "raÃ«l": 7140,
      "ĠtÃ©lÃ©ph": 7141,
      "adap": 7142,
      "Ġfinit": 7143,
      "ĠlancÃ©": 7144,
      "rÃ©nÃ©es": 7145,
      "ĠocÃ©": 7146,
      "ĠArticle": 7147,
      "Ġoccupe": 7148,
      "illers": 7149,
      "¤ï¸ı": 7150,
      "enait": 7151,
      "Ã©rite": 7152,
      "ĠannoncÃ©": 7153,
      "ĠArn": 7154,
      "':": 7155,
      "timis": 7156,
      "anda": 7157,
      "ĠdÃ©cis": 7158,
      "ĠâĢ¢": 7159,
      "bs": 7160,
      "ĠplanÃ¨tes": 7161,
      "Ġpouvant": 7162,
      "expÃ©ri": 7163,
      "ĠmÃ©dias": 7164,
      "FD": 7165,
      "Ġuniversitaire": 7166,
      "ĠArm": 7167,
      "missions": 7168,
      "ĠChicago": 7169,
      "Ġdiver": 7170,
      "Ġrac": 7171,
      "ĠdÃ©diÃ©": 7172,
      "ĠOlivier": 7173,
      "ree": 7174,
      "Ġsurnom": 7175,
      "Ġprit": 7176,
      "olutions": 7177,
      "FC": 7178,
      "avis": 7179,
      "Ġrendu": 7180,
      "ĠJuan": 7181,
      "existence": 7182,
      "ĠDistinctions": 7183,
      "TV": 7184,
      "Ġobtenir": 7185,
      "Ġprotoc": 7186,
      "mation": 7187,
      "auf": 7188,
      "Ġ1900": 7189,
      "RS": 7190,
      "Ġofficier": 7191,
      "oriz": 7192,
      "ĠrÃ©ponse": 7193,
      "Ġrequ": 7194,
      "ĠTechn": 7195,
      "ĠFilmographie": 7196,
      "abe": 7197,
      "usses": 7198,
      "*)": 7199,
      "Ind": 7200,
      "oe": 7201,
      "ĠcomplÃ¨te": 7202,
      "ĠsociÃ©tÃ©s": 7203,
      "ĠscÃ©nario": 7204,
      "ĠMaroc": 7205,
      "Ġportu": 7206,
      "ĠZe": 7207,
      "ĠvariÃ©tÃ©": 7208,
      "Ġsuffis": 7209,
      "åĴĮ": 7210,
      "ilan": 7211,
      "Ġhumaine": 7212,
      "ĠGenÃ¨ve": 7213,
      "Ġagricole": 7214,
      "ĠTw": 7215,
      "Ġquitter": 7216,
      "ĠfÃªte": 7217,
      "ĠAh": 7218,
      "Ġsupport": 7219,
      "Ġcroix": 7220,
      "ĠFamille": 7221,
      "Ġvent": 7222,
      "arre": 7223,
      "ĠPublications": 7224,
      "js": 7225,
      "Ġblanche": 7226,
      "Ġattaque": 7227,
      "manuel": 7228,
      "Ġ1924": 7229,
      "ĠÃ©conomiques": 7230,
      "ĠProf": 7231,
      "joint": 7232,
      "delÃł": 7233,
      "fici": 7234,
      "ĠdÃ©cÃ¨s": 7235,
      "06": 7236,
      "Baptiste": 7237,
      "hard": 7238,
      "Ġdisque": 7239,
      "Ġmille": 7240,
      "Ġdiscours": 7241,
      "ĠobservÃ©e": 7242,
      "Ġmol": 7243,
      "ĠLeague": 7244,
      "ĠFra": 7245,
      "ĠHu": 7246,
      "ĠStrasbourg": 7247,
      "sia": 7248,
      "glom": 7249,
      "ĠÃ©pous": 7250,
      "Ġvivant": 7251,
      "css": 7252,
      "ĠBell": 7253,
      "path": 7254,
      "ribue": 7255,
      "Char": 7256,
      "ĠBritish": 7257,
      "Ġutiliser": 7258,
      "ä¸ª": 7259,
      "ĠprÃ©cÃ©dent": 7260,
      "Ġappartient": 7261,
      "ÃŃn": 7262,
      "dios": 7263,
      "tension": 7264,
      "Ġbloc": 7265,
      "Ġappartenant": 7266,
      "jo": 7267,
      "Ġobjet": 7268,
      "Ġpatron": 7269,
      "Ġcouronne": 7270,
      "Ġpouss": 7271,
      "Ġprofit": 7272,
      "Cont": 7273,
      "Ġsocialiste": 7274,
      "ĠrÃ¨gles": 7275,
      "ĠÃīlections": 7276,
      "Ġpieds": 7277,
      "Ġsimplement": 7278,
      "ĠdiffusÃ©e": 7279,
      "error": 7280,
      "ĠRoi": 7281,
      "Ġtrente": 7282,
      "Ġ1927": 7283,
      "TE": 7284,
      "lish": 7285,
      "Ġdistribu": 7286,
      "ĠDivision": 7287,
      "ĠHab": 7288,
      "obi": 7289,
      "ĠSeine": 7290,
      "ĠcÃ©rÃ©monie": 7291,
      "Ġefficace": 7292,
      "ĠCÃ©s": 7293,
      "ĠVincent": 7294,
      "Ġ\".": 7295,
      "ðŁĩ¦": 7296,
      "Ġriches": 7297,
      "Ġphotos": 7298,
      "dh": 7299,
      "ĠSing": 7300,
      "ĠÃīpisode": 7301,
      "ardo": 7302,
      "Ã©mat": 7303,
      "acing": 7304,
      "ĠQui": 7305,
      "Ġvision": 7306,
      "ĠCamer": 7307,
      "èĥ½": 7308,
      "Ġaim": 7309,
      "ĠðŁķĬï¸ı": 7310,
      "ĠHy": 7311,
      "Ġnote": 7312,
      "Ã¨lement": 7313,
      "ĠAnti": 7314,
      "Ġâľ¨.": 7315,
      "gypte": 7316,
      "rue": 7317,
      "tro": 7318,
      "ĠdirigÃ©": 7319,
      "ession": 7320,
      "lieu": 7321,
      "Ġtoile": 7322,
      "igu": 7323,
      "alph": 7324,
      "Ġtennis": 7325,
      "ĠPlay": 7326,
      "Ġservi": 7327,
      "ĠSuÃ¨de": 7328,
      "ĠcollÃ¨ge": 7329,
      "Ġtur": 7330,
      "rets": 7331,
      "quÃ©es": 7332,
      "Ġvoire": 7333,
      "ĠBois": 7334,
      "Ġ38": 7335,
      "Ġclient": 7336,
      "Ġproduire": 7337,
      "veurs": 7338,
      "ĠRÃ©alisation": 7339,
      "Ġvote": 7340,
      "ĠKur": 7341,
      "Ġmarquis": 7342,
      "Ġouverte": 7343,
      "illons": 7344,
      "ĠHow": 7345,
      "ĠSouth": 7346,
      "';": 7347,
      "ĠdensitÃ©": 7348,
      "ĠAri": 7349,
      "ustin": 7350,
      "bit": 7351,
      "ĠLog": 7352,
      "Ġeffets": 7353,
      "Ġolympique": 7354,
      "ceaux": 7355,
      "ĠamÃ©ricains": 7356,
      "ĠLam": 7357,
      "mages": 7358,
      "Ġ1926": 7359,
      "param": 7360,
      "ĠCroix": 7361,
      "Ġ1910": 7362,
      "lises": 7363,
      "ĠÃ©tudie": 7364,
      "Ġrenouv": 7365,
      "Ġjaponaise": 7366,
      "();": 7367,
      "Hen": 7368,
      "Ġdite": 7369,
      "ĠNam": 7370,
      "Ġpropor": 7371,
      "ĠdiocÃ¨se": 7372,
      "ĠCheval": 7373,
      "Ġaspect": 7374,
      "Ġsouvenir": 7375,
      "aises": 7376,
      "ignon": 7377,
      "ĠmÃ©tropol": 7378,
      "ĠPortugal": 7379,
      "ĠBud": 7380,
      "ĠHill": 7381,
      "ĠConf": 7382,
      "Cal": 7383,
      "ĠreprÃ©sentations": 7384,
      "Ġ42": 7385,
      "sec": 7386,
      "uma": 7387,
      "Ġcomposition": 7388,
      "rons": 7389,
      "ĠâĶĤ": 7390,
      "ypoth": 7391,
      "elin": 7392,
      "bÃ©": 7393,
      "Ġfun": 7394,
      "bach": 7395,
      "ĠðŁ§¬": 7396,
      "Ġatteindre": 7397,
      "ðŁļ": 7398,
      "ignant": 7399,
      "auto": 7400,
      "iritu": 7401,
      "Ġvictimes": 7402,
      "Ġimage": 7403,
      "ĠcathÃ©drale": 7404,
      "attr": 7405,
      "ĠTak": 7406,
      "Ġexception": 7407,
      "Ġsin": 7408,
      "ĠSource": 7409,
      "olk": 7410,
      "ĠÃ§a": 7411,
      "eral": 7412,
      "uscrit": 7413,
      "lÃ©ans": 7414,
      "Ġactes": 7415,
      "heur": 7416,
      "Ã©pendant": 7417,
      "ĠAmÃ©rique": 7418,
      "Ġbesoins": 7419,
      "Ġpoursuit": 7420,
      "ĠDisney": 7421,
      "Autriche": 7422,
      "Ġversions": 7423,
      "Ã©chal": 7424,
      "ĠbibliothÃ¨que": 7425,
      "itter": 7426,
      "ĠArg": 7427,
      "Ã©nage": 7428,
      "ĠðŁĴİ": 7429,
      "'Â«": 7430,
      "ĠJeanne": 7431,
      "Ġterritori": 7432,
      "ĠðŁļ¶": 7433,
      "Ġnaz": 7434,
      "Ġhabitu": 7435,
      "ĠpÃªche": 7436,
      "ĠBig": 7437,
      "tate": 7438,
      "ordon": 7439,
      "ĠSÃ©n": 7440,
      "lette": 7441,
      "influence": 7442,
      "ĠUl": 7443,
      "asses": 7444,
      "Ġouest": 7445,
      "Ġ75": 7446,
      "encer": 7447,
      "IG": 7448,
      "Î±": 7449,
      "æĮ": 7450,
      "Ġ37": 7451,
      "zan": 7452,
      "ĠUA": 7453,
      "ĠcomplÃ¨": 7454,
      "Ġlocales": 7455,
      "Ġindique": 7456,
      "str": 7457,
      "Ġout": 7458,
      "other": 7459,
      "VD": 7460,
      "Ġtch": 7461,
      "ĠEv": 7462,
      "andie": 7463,
      "ĠCN": 7464,
      "oliques": 7465,
      "classic": 7466,
      "ĠsÃ©qu": 7467,
      "EL": 7468,
      "Mich": 7469,
      "ĠVis": 7470,
      "Ġacces": 7471,
      "Ġdemeure": 7472,
      "Ir": 7473,
      "ĠtÃ´t": 7474,
      "ĠBak": 7475,
      "ĠDurÃ©e": 7476,
      "Ġespace": 7477,
      "cted": 7478,
      "odi": 7479,
      "Ġ1912": 7480,
      "Ġnaturels": 7481,
      "Alex": 7482,
      "ĠScÃ©nario": 7483,
      "gorith": 7484,
      "nam": 7485,
      "ulaires": 7486,
      "Ġpromotion": 7487,
      "ĠdÃ©couvre": 7488,
      "Ġraisons": 7489,
      "Ġbo": 7490,
      "lantique": 7491,
      "âĢ²": 7492,
      "Ã©taient": 7493,
      "self": 7494,
      "agent": 7495,
      "Ġtonnes": 7496,
      "enez": 7497,
      "Ġbrigade": 7498,
      "Par": 7499,
      "Ġartiste": 7500,
      "ĠMilan": 7501,
      "ility": 7502,
      "gi": 7503,
      "formes": 7504,
      "ĠÃ©volution": 7505,
      "ĠðŁĽłï¸ı": 7506,
      "Ġenregistre": 7507,
      "osent": 7508,
      "ĠðŁĩµ": 7509,
      "Ġretourn": 7510,
      "Ġvaleurs": 7511,
      "select": 7512,
      "ĠUS": 7513,
      "orisÃ©e": 7514,
      "ĠCompagnie": 7515,
      "bin": 7516,
      "fond": 7517,
      "Ġmac": 7518,
      "ĠAz": 7519,
      "ĠPra": 7520,
      "osi": 7521,
      "ĠdiffÃ©rence": 7522,
      "ondes": 7523,
      "ĠRu": 7524,
      "ĠMadrid": 7525,
      "æĸĩ": 7526,
      "una": 7527,
      "affaires": 7528,
      "Ġ=>": 7529,
      "Ġpuisque": 7530,
      "code": 7531,
      "fait": 7532,
      "Ġ150": 7533,
      "ylv": 7534,
      "Ġ120": 7535,
      "ĠRose": 7536,
      "Ġcanadien": 7537,
      "architecte": 7538,
      "sen": 7539,
      "container": 7540,
      "Ã©ritage": 7541,
      "hÃ´ne": 7542,
      "Ġrurale": 7543,
      "PC": 7544,
      "ĠAllMovie": 7545,
      "Ġsait": 7546,
      "Ġcontenu": 7547,
      "Ġappari": 7548,
      "ĠðŁ©": 7549,
      "ooter": 7550,
      "tantin": 7551,
      ".âĢĶ": 7552,
      "PI": 7553,
      "Association": 7554,
      "ĠhÃ©ros": 7555,
      "ouvre": 7556,
      "ĠMonte": 7557,
      "ulg": 7558,
      "peau": 7559,
      "ĠâĤ¬": 7560,
      "Ġmusul": 7561,
      "ĠCode": 7562,
      "dem": 7563,
      "ĠenquÃªte": 7564,
      "ĠAra": 7565,
      "Ġaustral": 7566,
      "Ġtraduit": 7567,
      "ĠsÃ©p": 7568,
      "Ġperte": 7569,
      "Ġreconnu": 7570,
      "ĠdÃ©li": 7571,
      "ĠClassement": 7572,
      "ito": 7573,
      "ĠGall": 7574,
      "Ã£o": 7575,
      "ĠHa": 7576,
      "Ġexclus": 7577,
      "ĠJui": 7578,
      "Ġclo": 7579,
      "ĠRaymond": 7580,
      "Ġexemplaires": 7581,
      "aco": 7582,
      "yer": 7583,
      "fix": 7584,
      "ĠpÃ©d": 7585,
      "Ġproches": 7586,
      "Ġill": 7587,
      "ĠprocÃ©d": 7588,
      "allÃ©": 7589,
      "Ġfall": 7590,
      "Ã©ni": 7591,
      "new": 7592,
      "Ġchefs": 7593,
      "ipp": 7594,
      "ĠrÃ©aliser": 7595,
      "Hub": 7596,
      "SN": 7597,
      "å°": 7598,
      "ĠGusta": 7599,
      "Ġarabe": 7600,
      "Ġenvir": 7601,
      "Ġfondament": 7602,
      "ĠSteph": 7603,
      "Ġfabri": 7604,
      "ĠSanta": 7605,
      "Australie": 7606,
      "ĠthÃ©or": 7607,
      "Ġbataillon": 7608,
      "ĠTal": 7609,
      "ĠingÃ©n": 7610,
      "ful": 7611,
      "åŃ": 7612,
      "ductions": 7613,
      "Ġrecue": 7614,
      "ĠvolontÃ©": 7615,
      "Ġnobles": 7616,
      "nant": 7617,
      "\"]": 7618,
      "Ġfaite": 7619,
      "XV": 7620,
      "arra": 7621,
      "install": 7622,
      "ĠTable": 7623,
      "ĠVI": 7624,
      "ĠLÃ©gion": 7625,
      "zaine": 7626,
      "ĠdÃ©mission": 7627,
      "Ġlimit": 7628,
      "Ġtribunal": 7629,
      "ĠÃ©lev": 7630,
      "tn": 7631,
      "Ġtoit": 7632,
      "ĠreprÃ©sentation": 7633,
      "Ġjuni": 7634,
      "ĠfaÃ§ade": 7635,
      "ĠnÃ©erlandais": 7636,
      "Ð²": 7637,
      "ĠCur": 7638,
      "osc": 7639,
      "Ġlien": 7640,
      "Ġname": 7641,
      "ĠparallÃ¨le": 7642,
      "Ġorganisation": 7643,
      "ĠrÃ©vÃ©": 7644,
      "uler": 7645,
      "yme": 7646,
      "Ġdomicile": 7647,
      "application": 7648,
      "Ġvite": 7649,
      "Ġhar": 7650,
      "Ġautomobile": 7651,
      "ĠnÃ©anmoins": 7652,
      "utÃ©e": 7653,
      "Ġcarb": 7654,
      "ĠDÃ©f": 7655,
      "ĠrÃ©di": 7656,
      "Ġsolid": 7657,
      "Ġaccident": 7658,
      "ĠPublication": 7659,
      "ç®": 7660,
      "Ġgran": 7661,
      "ĠArthur": 7662,
      "ĠprÃ©t": 7663,
      "ĠdÃ©clarÃ©": 7664,
      "ĠCr": 7665,
      "ĠStat": 7666,
      "images": 7667,
      "entissage": 7668,
      "Ġâļ½": 7669,
      "ĠbasÃ©e": 7670,
      "ĠGenre": 7671,
      "ĠTunis": 7672,
      "gration": 7673,
      "hal": 7674,
      "rection": 7675,
      "ĠOcc": 7676,
      "2010": 7677,
      "ĠexpÃ©rience": 7678,
      "Ġerre": 7679,
      "ĠScott": 7680,
      "Ġair": 7681,
      "ĠdÃ©ten": 7682,
      "Ġinfrastructures": 7683,
      "ĠCelui": 7684,
      "drop": 7685,
      "Ġactif": 7686,
      "engage": 7687,
      "Ġpiste": 7688,
      "mina": 7689,
      "ĠÃ©viter": 7690,
      "Ġ39": 7691,
      "ĠintermÃ©di": 7692,
      "Ġsociaux": 7693,
      "Ġ1793": 7694,
      "ĠÃītat": 7695,
      "Ġmilliards": 7696,
      "ĠMadame": 7697,
      "document": 7698,
      "ĠKen": 7699,
      "ĠðŁķ°": 7700,
      "ĠfrÃ©quent": 7701,
      "ĠAntonio": 7702,
      "ĠWi": 7703,
      "Ġvivre": 7704,
      "Ġentou": 7705,
      "Ġfacil": 7706,
      "ĠrÃ©cit": 7707,
      "ĠKarl": 7708,
      "Bretagne": 7709,
      "ĠRevue": 7710,
      "ĠDor": 7711,
      "Ġpassion": 7712,
      "ibilitÃ©": 7713,
      "ovan": 7714,
      "Ġplans": 7715,
      ";&": 7716,
      "Ġfrag": 7717,
      "cial": 7718,
      "ĠInd": 7719,
      "Ġlecture": 7720,
      "ĠRoche": 7721,
      "uation": 7722,
      "ĠCher": 7723,
      "Ġrelativement": 7724,
      "Ġ1915": 7725,
      "ArmÃ©e": 7726,
      "ĠðŁĮį.": 7727,
      "Ġbranche": 7728,
      "ĠAk": 7729,
      "ĠðŁİµ": 7730,
      "Ã©vÃªque": 7731,
      "Ġpense": 7732,
      "ĠParc": 7733,
      "light": 7734,
      "ĠdÃ©velopper": 7735,
      "Ġchoisi": 7736,
      "tile": 7737,
      "ĠðŁĵ°": 7738,
      "Ġordres": 7739,
      "uj": 7740,
      "ĠBrown": 7741,
      "Ġcombats": 7742,
      "after": 7743,
      "ĠenvoyÃ©": 7744,
      "ropri": 7745,
      "ĠrÃ©volu": 7746,
      "\"\"": 7747,
      "ĠShe": 7748,
      "ĠStan": 7749,
      "Ġofficiers": 7750,
      "Ġacquis": 7751,
      "ona": 7752,
      "chent": 7753,
      "ĠĠĠĠĠĠĠĠĠĠĠĠĠĠĠĠĠĠĠĠĠĠĠ": 7754,
      "ĠMol": 7755,
      "med": 7756,
      "ĠrÃ©ussi": 7757,
      "uro": 7758,
      "Ġvain": 7759,
      "Ġ1921": 7760,
      "ĠdÃ©partemental": 7761,
      "call": 7762,
      "Ġpourtant": 7763,
      "autÃ©s": 7764,
      "ĠFar": 7765,
      "ĠexÃ©c": 7766,
      "ĠnaÃ®t": 7767,
      "Ġparoles": 7768,
      "lia": 7769,
      "ĠconnaÃ®tre": 7770,
      "Ġtechnologies": 7771,
      "Ġ1913": 7772,
      "ĠÃ©levÃ©e": 7773,
      "Ġcycliste": 7774,
      "enz": 7775,
      "aig": 7776,
      "Ġromain": 7777,
      "Ġpubliques": 7778,
      "Ġchevalier": 7779,
      "Th": 7780,
      "Ġ(+": 7781,
      "Ġwe": 7782,
      "OL": 7783,
      "ç½": 7784,
      "Ġoise": 7785,
      "2009": 7786,
      "ĠOs": 7787,
      "ĠDol": 7788,
      "ergÃ©": 7789,
      "TS": 7790,
      "Ġjuri": 7791,
      "ĠapprÃ©": 7792,
      "block": 7793,
      "Ġchanteuse": 7794,
      "Ġvenir": 7795,
      "lisme": 7796,
      "Ã¼n": 7797,
      "Ġdocumentaire": 7798,
      "Ġauparavant": 7799,
      "Ġcontact": 7800,
      "toggle": 7801,
      "ĠCollege": 7802,
      "Ġoffrant": 7803,
      "ĠFried": 7804,
      "ĠHal": 7805,
      "ĠSchool": 7806,
      "ĠÃ©crite": 7807,
      "Ġ1922": 7808,
      "modern": 7809,
      "absence": 7810,
      "Ġcous": 7811,
      "Ġcitoy": 7812,
      "Ã©val": 7813,
      "Ġorth": 7814,
      "Ġtalent": 7815,
      "dam": 7816,
      "Ã¸": 7817,
      "Ġanglaise": 7818,
      "ware": 7819,
      "instru": 7820,
      "Ġcircuit": 7821,
      "ĠdÃ©mocratique": 7822,
      "Ġstatue": 7823,
      "ilÃ©": 7824,
      "aisons": 7825,
      "Ġbra": 7826,
      "Ã©preuve": 7827,
      "ĠpersonnalitÃ©s": 7828,
      "Ġpseud": 7829,
      "Ġ(*": 7830,
      "aret": 7831,
      "Ġsoup": 7832,
      "ultures": 7833,
      "avenir": 7834,
      "'t": 7835,
      "ĠDj": 7836,
      "ĠDivers": 7837,
      "ĠForce": 7838,
      "oiles": 7839,
      "tir": 7840,
      "ĠmonastÃ¨re": 7841,
      "agination": 7842,
      "Ġ1916": 7843,
      "ĠStade": 7844,
      "Ġappareils": 7845,
      "Ġbleu": 7846,
      "orations": 7847,
      "---": 7848,
      "anga": 7849,
      "adis": 7850,
      "ĠreprÃ©sentants": 7851,
      "Ġaccueilli": 7852,
      "Ġhor": 7853,
      "CI": 7854,
      "mit": 7855,
      "search": 7856,
      "Ġaide": 7857,
      "ĠrÃ´les": 7858,
      "via": 7859,
      "ä»¥": 7860,
      "Ġchau": 7861,
      "ĠscÃ¨nes": 7862,
      "Ġ1923": 7863,
      "Ġrisques": 7864,
      "video": 7865,
      "ĠThis": 7866,
      "ĠFrancisco": 7867,
      "avier": 7868,
      "enture": 7869,
      "adÃ©": 7870,
      "Ġache": 7871,
      "kraine": 7872,
      "Ġfonctionnement": 7873,
      "Ġsan": 7874,
      "ĠAf": 7875,
      "Ġfeuilles": 7876,
      "arriÃ¨re": 7877,
      "ĠðŁĹ£": 7878,
      "éĩ": 7879,
      "Ġchemins": 7880,
      "ao": 7881,
      "Jac": 7882,
      "ĠdÃ©te": 7883,
      "ople": 7884,
      "Ġvoyageurs": 7885,
      "ĠStÃ©": 7886,
      "ĠindÃ©pendant": 7887,
      "raires": 7888,
      "Ġ1911": 7889,
      "xford": 7890,
      "ĠCÃ©sar": 7891,
      "åĨ": 7892,
      "uisent": 7893,
      "ĠFondation": 7894,
      "Ġdynas": 7895,
      "Ġvirtu": 7896,
      "Ġmurs": 7897,
      "ĠXVe": 7898,
      "Ġporter": 7899,
      "mans": 7900,
      "chec": 7901,
      "ĠfÃ©minine": 7902,
      "ĠCinÃ©ma": 7903,
      "ĠChi": 7904,
      "ĠLangue": 7905,
      "ĠprÃªtre": 7906,
      "ĠGreen": 7907,
      "Ġallant": 7908,
      "www": 7909,
      "cho": 7910,
      "ĠspÃ©cifiques": 7911,
      "andre": 7912,
      "novation": 7913,
      "book": 7914,
      "vit": 7915,
      "ĠMaz": 7916,
      "ĠHub": 7917,
      "ĠidÃ©es": 7918,
      "Martin": 7919,
      "Ġâı±": 7920,
      "Ġvra": 7921,
      "deux": 7922,
      "ĠÃīconomie": 7923,
      "ĠÃ©trangÃ¨res": 7924,
      "ĠVirgin": 7925,
      "ĠNat": 7926,
      "opacity": 7927,
      "Ġcycle": 7928,
      "âľ¨": 7929,
      "ĠPau": 7930,
      "Ġvide": 7931,
      "Ġgagne": 7932,
      "Ġwh": 7933,
      "ĠCorÃ©e": 7934,
      "Ġdramatique": 7935,
      "ĠDre": 7936,
      "ĠKo": 7937,
      "ason": 7938,
      "adel": 7939,
      "ĠAlfred": 7940,
      "ĠvÃ©gÃ©t": 7941,
      "ĠRap": 7942,
      "alisÃ©s": 7943,
      "Ġsuivre": 7944,
      "ĠLie": 7945,
      "pa": 7946,
      "arrow": 7947,
      "Ġdatant": 7948,
      "Ġæ": 7949,
      "arte": 7950,
      "ĠWalter": 7951,
      "quette": 7952,
      "Ge": 7953,
      "venue": 7954,
      "ĠReich": 7955,
      "Ġrares": 7956,
      "ect": 7957,
      "union": 7958,
      "veux": 7959,
      "ĠInde": 7960,
      "venu": 7961,
      "AlgÃ©rie": 7962,
      "Ñĥ": 7963,
      "Ġare": 7964,
      "Ġrester": 7965,
      "unt": 7966,
      "ĠSans": 7967,
      "Ġprestig": 7968,
      "affaire": 7969,
      "Ġcroissance": 7970,
      "Ã©les": 7971,
      "ĠPub": 7972,
      "prÃ©sident": 7973,
      "ĠðŁĴ¸": 7974,
      "else": 7975,
      "dez": 7976,
      "ancement": 7977,
      "ĠNoÃ«l": 7978,
      "ographies": 7979,
      "Ġexplique": 7980,
      "ĠðŁıĹï¸ı": 7981,
      "veillance": 7982,
      "tins": 7983,
      "Ġ600": 7984,
      "ĠprotÃ©ger": 7985,
      "ĠdÃ©tail": 7986,
      "ĠFem": 7987,
      "ĠutilisÃ©es": 7988,
      "Ġclair": 7989,
      "orient": 7990,
      "Ġbasket": 7991,
      "ĠparamÃ¨tres": 7992,
      "ĠpossibilitÃ©": 7993,
      "ĠportÃ©e": 7994,
      "assÃ©": 7995,
      "Ġcandidats": 7996,
      "river": 7997,
      "ĠdÃ©riv": 7998,
      "expression": 7999,
      "hÃ´pital": 8000,
      "orf": 8001,
      "Ġrues": 8002,
      "version": 8003,
      "ĠUrb": 8004,
      "Ġfe": 8005,
      "Ġ1870": 8006,
      "Ġconcerne": 8007,
      "Ġtransports": 8008,
      "ĠrÃ©fug": 8009,
      "ĠDup": 8010,
      "Ġryth": 8011,
      "Ġtrains": 8012,
      "Ġconsci": 8013,
      "Ġinternationales": 8014,
      "Ġcardinal": 8015,
      "rak": 8016,
      "Ġbud": 8017,
      "ĠList": 8018,
      "ĠðŁĩ«ðŁĩ·.": 8019,
      "ĠðŁĸ¼ï¸ı": 8020,
      "Ã©criv": 8021,
      "Ġroyal": 8022,
      "ĠSituation": 8023,
      "bilitÃ©": 8024,
      "section": 8025,
      "ĠDominique": 8026,
      "Ġtitulaire": 8027,
      "ĠchÅĵur": 8028,
      "Loire": 8029,
      "ĠTy": 8030,
      "Ġjudici": 8031,
      "wiki": 8032,
      "ĠpensÃ©e": 8033,
      "ask": 8034,
      "Ġresse": 8035,
      "ĠrÃ©gionale": 8036,
      "ĠMid": 8037,
      "endue": 8038,
      "big": 8039,
      "td": 8040,
      "Ġlogements": 8041,
      "jon": 8042,
      "ĠsuÃ©d": 8043,
      "ĠMis": 8044,
      "ĠdÃ©n": 8045,
      "Ġdispute": 8046,
      "ĠsignÃ©": 8047,
      "ĠVictoria": 8048,
      "ĠNancy": 8049,
      "Ġbus": 8050,
      "ĠJacob": 8051,
      "Ġadvers": 8052,
      "Ġrappel": 8053,
      "Ġmanuscrit": 8054,
      "Ġexplo": 8055,
      "Ġmicro": 8056,
      "Ġsoleil": 8057,
      "ĠRem": 8058,
      "ĠJeunesse": 8059,
      "ĠpossÃ©d": 8060,
      "ĠJones": 8061,
      "ĠTokyo": 8062,
      "Ġservir": 8063,
      "Ġscru": 8064,
      "Ġcommuniste": 8065,
      "ST": 8066,
      "footer": 8067,
      "rary": 8068,
      "ĠendÃ©": 8069,
      "Ġsemi": 8070,
      "Ġtraverse": 8071,
      "Ġalbums": 8072,
      "ĠAward": 8073,
      "jectifs": 8074,
      "appu": 8075,
      "Ġmoteurs": 8076,
      "ĠSalon": 8077,
      "Ġcant": 8078,
      "ĠHau": 8079,
      "Ġvolumes": 8080,
      "mant": 8081,
      "Ġprofessionnels": 8082,
      "ĠintÃ¨gre": 8083,
      "allon": 8084,
      "Ġtoi": 8085,
      "Ġcalc": 8086,
      "appro": 8087,
      "ĠCompany": 8088,
      "ĠGlob": 8089,
      "ĠLille": 8090,
      "Ġfisc": 8091,
      "ĠÃ©lus": 8092,
      "Ġrej": 8093,
      "Ġrejet": 8094,
      "Ġdynamique": 8095,
      "bli": 8096,
      "Ġpointe": 8097,
      "entÃ´t": 8098,
      "thi": 8099,
      "plus": 8100,
      "ĠJam": 8101,
      "UN": 8102,
      "Ġpratiques": 8103,
      "Ã©rou": 8104,
      "unk": 8105,
      "ĠmaÃ®tr": 8106,
      "ĠpÃ©tro": 8107,
      "agriculture": 8108,
      "ogs": 8109,
      "vateur": 8110,
      "ĠðŁĳ¶": 8111,
      "LE": 8112,
      "Ġplateau": 8113,
      "atte": 8114,
      "AI": 8115,
      "Ġtraite": 8116,
      "Ġvoitures": 8117,
      "Ġcommercial": 8118,
      "Ġ--------------------------------": 8119,
      "Mont": 8120,
      "ĠConstantin": 8121,
      "Ġquart": 8122,
      "Ġfich": 8123,
      "Ġbaron": 8124,
      "ĠpubliÃ©s": 8125,
      "ĠEdward": 8126,
      "ĠSpe": 8127,
      "Ġprivil": 8128,
      "\":\"": 8129,
      "PU": 8130,
      "len": 8131,
      "ĠMik": 8132,
      "ysique": 8133,
      "ĠðŁĵį,": 8134,
      "ĠrÃ©duire": 8135,
      "ĠGabriel": 8136,
      "dont": 8137,
      "Ġinten": 8138,
      "Ġmusical": 8139,
      "Ġseuls": 8140,
      "}.": 8141,
      "ĠaÃ©riennes": 8142,
      "Ġhame": 8143,
      "Ã©rieures": 8144,
      "find": 8145,
      "ĠArchives": 8146,
      "ĠIndi": 8147,
      "ĠWill": 8148,
      "Ġcompose": 8149,
      "hu": 8150,
      "arme": 8151,
      "ĠRennes": 8152,
      "2006": 8153,
      "ĠconsidÃ©rÃ©e": 8154,
      "ĠPasc": 8155,
      "ĠRis": 8156,
      "Ġclimatique": 8157,
      "Ġcord": 8158,
      "Ġmissions": 8159,
      "Ġda": 8160,
      "ĠRue": 8161,
      "ĠOui": 8162,
      "ĠHigh": 8163,
      "ĠKir": 8164,
      "Ġpla": 8165,
      "DR": 8166,
      "ĠexpÃ©riment": 8167,
      "ĠTo": 8168,
      "ĠId": 8169,
      "ĠĠĠĠĠĠĠĠĠĠ": 8170,
      "Ġnationales": 8171,
      "Ġfavoris": 8172,
      "gon": 8173,
      "source": 8174,
      "ĠSel": 8175,
      "auph": 8176,
      "ĠaÃ®": 8177,
      "Ġstations": 8178,
      "Name": 8179,
      "ĠUniversitÃ©": 8180,
      "ĠðŁ¤Ŀ.": 8181,
      "Ġpourquoi": 8182,
      "Ġvisant": 8183,
      "2012": 8184,
      "ĠliÃ©s": 8185,
      "vres": 8186,
      "2005": 8187,
      "glomÃ©ration": 8188,
      "sey": 8189,
      "nia": 8190,
      "ganisation": 8191,
      "Ġportug": 8192,
      "sign": 8193,
      "ĠentraÃ®neur": 8194,
      "hann": 8195,
      "------------": 8196,
      "ĠintÃ©ress": 8197,
      "Ġcomprendre": 8198,
      "tia": 8199,
      "ĠGrÃ¢ce": 8200,
      "ĠOne": 8201,
      "Ġsujets": 8202,
      "Ġreligieuse": 8203,
      "ĠassociÃ©": 8204,
      "ı«": 8205,
      "Ġpuisqu": 8206,
      "Ġabrite": 8207,
      "rÃ©sor": 8208,
      "ĠUti": 8209,
      "Ġcenter": 8210,
      "ĠÃīvolution": 8211,
      "saison": 8212,
      "ĠPopul": 8213,
      "âĢ³": 8214,
      "}\\": 8215,
      "Ang": 8216,
      "amÃ©li": 8217,
      "chevÃªque": 8218,
      "loc": 8219,
      "ynam": 8220,
      "archie": 8221,
      "Ġlaisser": 8222,
      "Ġset": 8223,
      "ĠJÃ©s": 8224,
      "kins": 8225,
      "({": 8226,
      "Ġmobile": 8227,
      "alem": 8228,
      "Ġconcurr": 8229,
      "Ġpapier": 8230,
      "orÃ©e": 8231,
      "ĠMach": 8232,
      "Ġastron": 8233,
      "ilitÃ©s": 8234,
      "ĠAmb": 8235,
      "dele": 8236,
      "ĠGare": 8237,
      "Ġretrouver": 8238,
      "CS": 8239,
      "artillerie": 8240,
      "Ġexpli": 8241,
      "Gar": 8242,
      "ĠGod": 8243,
      "2011": 8244,
      "2008": 8245,
      "ĠprÃª": 8246,
      "ĠmÃ©lan": 8247,
      "ĠCommunautÃ©": 8248,
      "Ġacteurs": 8249,
      "cio": 8250,
      "Ġrespect": 8251,
      "ĠconsidÃ¨re": 8252,
      "\");": 8253,
      "date": 8254,
      "Ġdehors": 8255,
      "ĠSong": 8256,
      "fiÃ©e": 8257,
      "åĮ": 8258,
      "olÃ©": 8259,
      "Ġobjectif": 8260,
      "tumes": 8261,
      "æī": 8262,
      "erte": 8263,
      "ĠLieux": 8264,
      "Ġ55": 8265,
      "ivement": 8266,
      "Ġrevanche": 8267,
      "ĠaÃ©rienne": 8268,
      "inform": 8269,
      "Ġspiritu": 8270,
      "Ġdispositif": 8271,
      "ĠLaw": 8272,
      "Ġexc": 8273,
      "Ġvisible": 8274,
      "Ġordin": 8275,
      "Ġsolution": 8276,
      "ĠMans": 8277,
      "ĠEss": 8278,
      "ĠdÃ©bit": 8279,
      "Ġculturelle": 8280,
      "ĠeuropÃ©ens": 8281,
      "Lib": 8282,
      "aid": 8283,
      "ification": 8284,
      "ĠLan": 8285,
      "ĠLit": 8286,
      "ĠBul": 8287,
      "2007": 8288,
      "ĠconfÃ©rence": 8289,
      "Ġneur": 8290,
      "Ġ64": 8291,
      "ĠManuel": 8292,
      "Ġlesquelles": 8293,
      "xy": 8294,
      "inage": 8295,
      "ĠMars": 8296,
      "uxembourg": 8297,
      "oureux": 8298,
      "ĠWood": 8299,
      "pop": 8300,
      "ĠPaci": 8301,
      "Ġautrich": 8302,
      "Inde": 8303,
      "ĠLud": 8304,
      "Ġpav": 8305,
      "ĠVierge": 8306,
      "Ġdocteur": 8307,
      "riÃ¨res": 8308,
      "Ġorbite": 8309,
      "ĠGouver": 8310,
      "ĠprÃ©sidence": 8311,
      "ĠdÃ©finie": 8312,
      "define": 8313,
      "taxons": 8314,
      "ases": 8315,
      "ĠAustralie": 8316,
      "igny": 8317,
      "Ġcens": 8318,
      "ĠLamb": 8319,
      "ĠPeti": 8320,
      "Ġprogressivement": 8321,
      "âľ": 8322,
      "Ġdevi": 8323,
      "icien": 8324,
      "ĠgÃ©nÃ©raux": 8325,
      "Ġadministrative": 8326,
      "Histoire": 8327,
      "stra": 8328,
      "Her": 8329,
      "pper": 8330,
      "Ġfortif": 8331,
      "Ġtiers": 8332,
      "ĠNantes": 8333,
      "ĠHouse": 8334,
      "tration": 8335,
      "abbÃ©": 8336,
      "Ġespagnole": 8337,
      "ĠðŁĩªðŁĩº": 8338,
      "start": 8339,
      "lon": 8340,
      "Ġentier": 8341,
      "âĢĿ": 8342,
      "ĠFil": 8343,
      "ĠNov": 8344,
      "Ġcertif": 8345,
      "Ġdescription": 8346,
      "ĠextrÃªme": 8347,
      "2013": 8348,
      "board": 8349,
      "ĠWhite": 8350,
      "ĠÃ©trangers": 8351,
      "ventaire": 8352,
      "ĠfÃ©dÃ©ral": 8353,
      "Ġtransfert": 8354,
      "Ġmys": 8355,
      "Ġenvers": 8356,
      "opposition": 8357,
      "ermont": 8358,
      "Ġconvain": 8359,
      "Î¿": 8360,
      "utt": 8361,
      "Åĵuf": 8362,
      "Ġcomportement": 8363,
      "Ã³w": 8364,
      "ĠBase": 8365,
      "Ġ41": 8366,
      "Ġ%)": 8367,
      "ĠdiplÃ´me": 8368,
      "well": 8369,
      "Ġconsiste": 8370,
      "Ġcapable": 8371,
      "ĠFrances": 8372,
      "Ġbritanniques": 8373,
      "ĠprivÃ©": 8374,
      "istique": 8375,
      "ĠOt": 8376,
      "Ńī": 8377,
      "Ġvesti": 8378,
      "oxe": 8379,
      "ĠðŁıĽï¸ı,": 8380,
      "ayant": 8381,
      "Ġrencontres": 8382,
      "orge": 8383,
      "ĠHaut": 8384,
      "ther": 8385,
      "llectu": 8386,
      "rieure": 8387,
      "Ġnor": 8388,
      "illage": 8389,
      "ĠplacÃ©": 8390,
      "pri": 8391,
      "endie": 8392,
      "ĠHyd": 8393,
      "ĠclassÃ©e": 8394,
      "uelles": 8395,
      "ĠSpr": 8396,
      "ĠFranco": 8397,
      "Ġtransmission": 8398,
      "Ed": 8399,
      "aies": 8400,
      "Ġacte": 8401,
      "Ġhect": 8402,
      "page": 8403,
      "arrÃª": 8404,
      "Ġsugg": 8405,
      "ĠÃ©vent": 8406,
      "ĠlÃ©gÃ¨rement": 8407,
      "Ġretourne": 8408,
      "ĠRD": 8409,
      "cepti": 8410,
      "pel": 8411,
      "Ġassure": 8412,
      "Ġchampions": 8413,
      "ferm": 8414,
      "Ġflotte": 8415,
      "ĠBoul": 8416,
      "Ġbio": 8417,
      "Ġutilisent": 8418,
      "ĠLeon": 8419,
      "Ġdoctor": 8420,
      "commun": 8421,
      "Ġaura": 8422,
      "Ġfabrication": 8423,
      "Es": 8424,
      "prÃ¨te": 8425,
      "Ġ)": 8426,
      "ĠJoe": 8427,
      "ä¾": 8428,
      "Ġ44": 8429,
      "ĠITIS": 8430,
      "lang": 8431,
      "ĠDiff": 8432,
      "oung": 8433,
      "Ġbrill": 8434,
      "ĠdÃ©plac": 8435,
      "ĠVit": 8436,
      "iral": 8437,
      "Ŀï¸ı": 8438,
      "ener": 8439,
      "extÃ©rieur": 8440,
      "Ġcommunale": 8441,
      "ditÃ©": 8442,
      "Ġconduite": 8443,
      "value": 8444,
      "ĠJuifs": 8445,
      "ĠNorv": 8446,
      "ĠMort": 8447,
      "lisabeth": 8448,
      "Ġcoups": 8449,
      "oÃ®t": 8450,
      "Ġrestauration": 8451,
      "Ġate": 8452,
      "cir": 8453,
      "arios": 8454,
      "Ġresta": 8455,
      "Ġconserve": 8456,
      "Ġbatterie": 8457,
      "2015": 8458,
      "mands": 8459,
      "ĠcÃ©lÃ©b": 8460,
      "push": 8461,
      "Ġcontenant": 8462,
      "fam": 8463,
      "mologie": 8464,
      "ycl": 8465,
      "ĠJane": 8466,
      "Ġromans": 8467,
      "Ġcomplexes": 8468,
      "Ġinterne": 8469,
      "iana": 8470,
      "Ġsynth": 8471,
      "AA": 8472,
      "ĠHit": 8473,
      "Ġlinguis": 8474,
      "Ġfranco": 8475,
      "Ġrecru": 8476,
      "Ġdavantage": 8477,
      "Ã©tiques": 8478,
      "ĠYe": 8479,
      "Ġ1906": 8480,
      "pit": 8481,
      "post": 8482,
      "ueur": 8483,
      "atifs": 8484,
      "ĠUni": 8485,
      "ĠExemple": 8486,
      "ï¸ıðŁĴ": 8487,
      "Ġprolong": 8488,
      "ĠTru": 8489,
      "Ġdouce": 8490,
      "Ġcouverture": 8491,
      "Ġcourte": 8492,
      "ĠCup": 8493,
      "ĠOuv": 8494,
      "Ġâļĸ": 8495,
      "ĠorganisÃ©e": 8496,
      "Ġroutes": 8497,
      "Ġrefuse": 8498,
      "Ġhumains": 8499,
      "Ġsent": 8500,
      "dion": 8501,
      "ĠAdam": 8502,
      "ĠBourgogne": 8503,
      "ĠSix": 8504,
      "Ġ52": 8505,
      "ĠGrenoble": 8506,
      "ĠmÃ¨ne": 8507,
      "ĠJud": 8508,
      "ĠprÃ©sents": 8509,
      "ĠCast": 8510,
      "auth": 8511,
      "entrer": 8512,
      "Ġaffirme": 8513,
      "ken": 8514,
      "opt": 8515,
      "Ġsusp": 8516,
      "OI": 8517,
      "ĠMerc": 8518,
      "ĠpoÃ©sie": 8519,
      ">=": 8520,
      "Ġpel": 8521,
      "ĠFormat": 8522,
      "Ob": 8523,
      "Ġrig": 8524,
      "exception": 8525,
      "Ġterrains": 8526,
      "Ġprises": 8527,
      "ĠChampions": 8528,
      "Ġdistingue": 8529,
      "Jacques": 8530,
      "ĠVoy": 8531,
      "Ġclimatiques": 8532,
      "rograph": 8533,
      "fications": 8534,
      "Ġvisage": 8535,
      "ĠPython": 8536,
      "Ġouvre": 8537,
      "mÃ©s": 8538,
      "ĠrÃ©pondre": 8539,
      "ä¼": 8540,
      "ĠintÃ©grÃ©": 8541,
      "rophes": 8542,
      "ĠðŁı«": 8543,
      "Ġsecondaire": 8544,
      "info": 8545,
      "ĠMu": 8546,
      "ĠliÃ©": 8547,
      "ĠÃ¢ge": 8548,
      "Ġfoss": 8549,
      "ĠÂ»),": 8550,
      "itent": 8551,
      "pective": 8552,
      "ĠbrÃ»": 8553,
      "window": 8554,
      "ressionn": 8555,
      "ĠVous": 8556,
      "onna": 8557,
      "tenir": 8558,
      "server": 8559,
      "äºİ": 8560,
      "last": 8561,
      "Ġ_": 8562,
      "Ġbanc": 8563,
      "Ġcanon": 8564,
      "uns": 8565,
      "ĠprÃ©cÃ©dente": 8566,
      "ĠRoman": 8567,
      "Ġmachine": 8568,
      "ĠðŁĶį": 8569,
      "ĠrÃ©vol": 8570,
      "Ã©lÃ¨ve": 8571,
      "ĠFr": 8572,
      "erty": 8573,
      "Ġeffectue": 8574,
      "Michel": 8575,
      "Ġlou": 8576,
      "ĠcoÃ»t": 8577,
      "ĠclÃ©s": 8578,
      "ĠAlph": 8579,
      "ĠFal": 8580,
      "ĠGard": 8581,
      "reau": 8582,
      "Ġgrave": 8583,
      "Open": 8584,
      "Event": 8585,
      "card": 8586,
      "ensions": 8587,
      "itHub": 8588,
      "ĠNick": 8589,
      "ĠdiplÃ´": 8590,
      "\"+": 8591,
      "base": 8592,
      "idden": 8593,
      "ĠprÃ©sentation": 8594,
      "ould": 8595,
      "ĠCÃ´te": 8596,
      "fiant": 8597,
      "Ġment": 8598,
      "ĠMatt": 8599,
      "ĠTan": 8600,
      "osÃ©s": 8601,
      "entification": 8602,
      "ĠmÃ©thodes": 8603,
      "ĠrÃ©sidence": 8604,
      "xxl": 8605,
      "Ġfroid": 8606,
      "ĠðŁĩ³": 8607,
      "Ġjaune": 8608,
      "Ġmaritime": 8609,
      "endrier": 8610,
      "ĠRÃ©partition": 8611,
      "Ġlo": 8612,
      "Ġlimites": 8613,
      "ĠUnited": 8614,
      "Ġassociation": 8615,
      "ĠvÃ©hicule": 8616,
      "Ġconnexe": 8617,
      "ĠPos": 8618,
      "ĠXIIe": 8619,
      "ĠLivre": 8620,
      "Ġavions": 8621,
      "Ġprisonniers": 8622,
      "ee": 8623,
      "Ġnul": 8624,
      "ĠmÃ©trage": 8625,
      "Ġallemands": 8626,
      "tabilitÃ©": 8627,
      "ĠimmÃ©diatement": 8628,
      "ĠComment": 8629,
      "dd": 8630,
      "luent": 8631,
      "options": 8632,
      "Ġrele": 8633,
      "Ġinfluence": 8634,
      "ĠCaroline": 8635,
      "Ġcrimin": 8636,
      "emploi": 8637,
      "Ġcabinet": 8638,
      "mosph": 8639,
      "Ġphysiques": 8640,
      "owiat": 8641,
      "uellement": 8642,
      "Ġrespectivement": 8643,
      "ĠrÃ©ussit": 8644,
      "ĠPatrimoine": 8645,
      "Sh": 8646,
      "Ġ47": 8647,
      "installe": 8648,
      "Ġunif": 8649,
      "Ġang": 8650,
      "Ġ800": 8651,
      "ĠLeg": 8652,
      "Ġ46": 8653,
      "rophe": 8654,
      "Ġsalles": 8655,
      "enreg": 8656,
      "]=": 8657,
      "tz": 8658,
      "Ġhas": 8659,
      "ĠðŁıŁ": 8660,
      "static": 8661,
      "Ġeau": 8662,
      "ĠðŁĴĸ": 8663,
      "mateur": 8664,
      "radius": 8665,
      "aign": 8666,
      "Ġfasc": 8667,
      "ĠTi": 8668,
      "tina": 8669,
      "Ġneut": 8670,
      "ĠrÃ©daction": 8671,
      "ÅĦ": 8672,
      "ĠMot": 8673,
      "ermain": 8674,
      "Asie": 8675,
      "ĠVenise": 8676,
      "Ġgamme": 8677,
      "Insee": 8678,
      "expÃ©rience": 8679,
      "ZÃ©": 8680,
      "ĠHom": 8681,
      "Ġprote": 8682,
      "ĠâĻ": 8683,
      "Ġ1905": 8684,
      "Ġliaison": 8685,
      "meub": 8686,
      "pement": 8687,
      "âĶĢâĶĢâĶĢâĶĢ": 8688,
      "ladi": 8689,
      "ĠprÃ©sidentielle": 8690,
      "rimer": 8691,
      "ĠrÃ©duit": 8692,
      "ensive": 8693,
      "ðŁĹ": 8694,
      "Ġmilit": 8695,
      "levard": 8696,
      "ĠinspirÃ©": 8697,
      "ouvrage": 8698,
      "try": 8699,
      "Ġanc": 8700,
      "ĠconsÃ©cu": 8701,
      "Ġrepose": 8702,
      "inves": 8703,
      "gray": 8704,
      "Ġcroise": 8705,
      "ĠNice": 8706,
      "ĠWom": 8707,
      "Ġtempor": 8708,
      "ĠdÃ©clen": 8709,
      "ĠcatÃ©gorisÃ©e": 8710,
      "script": 8711,
      "ĠVar": 8712,
      "Ã©en": 8713,
      "aph": 8714,
      "ouri": 8715,
      "Ġenvis": 8716,
      "Ġretrait": 8717,
      "court": 8718,
      "ciation": 8719,
      "Ġflux": 8720,
      "ĠcinÃ©mat": 8721,
      "Ġvictime": 8722,
      "Ġsportif": 8723,
      "Id": 8724,
      "Ġmul": 8725,
      "Ġrepris": 8726,
      "Ġcondition": 8727,
      "Ġcommunal": 8728,
      "Ð¾Ð²": 8729,
      "ritÃ©": 8730,
      "Ġsouverain": 8731,
      "Ã¨che": 8732,
      "Ġapplication": 8733,
      "æĶ¯": 8734,
      "CD": 8735,
      "Ã©tranger": 8736,
      "Ġsecret": 8737,
      "ctive": 8738,
      "Ġsecondaires": 8739,
      "Ġhumain": 8740,
      "vidus": 8741,
      "ĠLuxembourg": 8742,
      "cope": 8743,
      "ĠSerge": 8744,
      "rime": 8745,
      "Ġbaie": 8746,
      "Åĵil": 8747,
      "ĠStÃ©ph": 8748,
      "ĠCath": 8749,
      "ĠPÃ©ri": 8750,
      "Ġtemple": 8751,
      "ĠAle": 8752,
      "tica": 8753,
      "Ġtrouvait": 8754,
      "ĠPrince": 8755,
      "Ġdynastie": 8756,
      "cin": 8757,
      "ĠChamb": 8758,
      "Ġphotographie": 8759,
      "Ġtitle": 8760,
      "atie": 8761,
      "ĠconsacrÃ©": 8762,
      "ĠdifficultÃ©s": 8763,
      "ude": 8764,
      "irurg": 8765,
      "ĠHistory": 8766,
      "ĠhÃ´tel": 8767,
      "çī": 8768,
      "ĠSo": 8769,
      "umer": 8770,
      "Ġ1907": 8771,
      "nail": 8772,
      "OrlÃ©ans": 8773,
      "Ġcouvrant": 8774,
      "ĠPS": 8775,
      "ulsion": 8776,
      "Ġparticul": 8777,
      "ruption": 8778,
      "tille": 8779,
      "emples": 8780,
      "TML": 8781,
      "Ã©tablissement": 8782,
      "Ġestime": 8783,
      "orisation": 8784,
      "ĠtrouvÃ©": 8785,
      "Ġmaintenir": 8786,
      "Ġmultiples": 8787,
      "uge": 8788,
      "asy": 8789,
      "æł": 8790,
      "uerite": 8791,
      "ĠGh": 8792,
      "laves": 8793,
      "ial": 8794,
      "ĠSub": 8795,
      "ĠmathÃ©matiques": 8796,
      "æĮģ": 8797,
      "Ġrecommand": 8798,
      "Ġculte": 8799,
      "ĠBruno": 8800,
      "wer": 8801,
      "Ġsauf": 8802,
      "ĠRio": 8803,
      "cts": 8804,
      "Ġprogrammes": 8805,
      "ĠFlorence": 8806,
      "ĠStreet": 8807,
      "class": 8808,
      "Ġ1908": 8809,
      "check": 8810,
      "pour": 8811,
      "Ġadul": 8812,
      "OP": 8813,
      "blement": 8814,
      "ĠsÃ©jour": 8815,
      "ĠGon": 8816,
      "Ġgrille": 8817,
      "ĠscÃ©nariste": 8818,
      "ashi": 8819,
      "ĠÃ©crits": 8820,
      "dans": 8821,
      "ĠprÃ©nom": 8822,
      "ellation": 8823,
      "Ġ65": 8824,
      "ĠPin": 8825,
      "ĠFac": 8826,
      "acre": 8827,
      "ando": 8828,
      "Ð¸Ñ": 8829,
      "Ġchacune": 8830,
      "tal": 8831,
      "ĠentrÃ©e": 8832,
      "2001": 8833,
      "ĠcomÃ©di": 8834,
      "ender": 8835,
      "ĠÃ©nerg": 8836,
      "æį": 8837,
      "Ġdesser": 8838,
      "ĠMess": 8839,
      "ĠÃ©tro": 8840,
      "sa": 8841,
      "anglais": 8842,
      "Ġapprend": 8843,
      "cus": 8844,
      "Ãªques": 8845,
      "ĠCatalog": 8846,
      "Ġchim": 8847,
      "athan": 8848,
      "ĠrÃ©vÃ¨le": 8849,
      "Ġiden": 8850,
      "Ġquartiers": 8851,
      "ĠConstitution": 8852,
      "Ġaccueille": 8853,
      "istoires": 8854,
      "Ã¦": 8855,
      "Ġinternes": 8856,
      "ĠCoun": 8857,
      "Ġisra": 8858,
      "ĠOnline": 8859,
      "diction": 8860,
      "Ġpy": 8861,
      "Ãªcher": 8862,
      "ĠLas": 8863,
      "ĠTown": 8864,
      "ĠCommand": 8865,
      "ä»¶": 8866,
      "Ġchron": 8867,
      "ĠcommunautÃ©s": 8868,
      "2004": 8869,
      "Henri": 8870,
      "HE": 8871,
      "Me": 8872,
      "ĀĀ": 8873,
      "Ġconnus": 8874,
      "Ãītienne": 8875,
      "Ġdisponibles": 8876,
      "ĠWindows": 8877,
      "orizont": 8878,
      "Math": 8879,
      "Ã©lic": 8880,
      "Ġlabor": 8881,
      "Ġprennent": 8882,
      "Ġ43": 8883,
      "Ġtenu": 8884,
      "olic": 8885,
      "Ġ54": 8886,
      "effec": 8887,
      "ĠRenaissance": 8888,
      "lige": 8889,
      "Ġprincesse": 8890,
      "ĠrÃ©pert": 8891,
      "ĠDenis": 8892,
      "ĠBlo": 8893,
      "ĠQuatre": 8894,
      "Ġfaute": 8895,
      "ĠKy": 8896,
      "ĠexposÃ©e": 8897,
      "ĠrÃ©guliÃ¨re": 8898,
      "uki": 8899,
      "Ã¨dent": 8900,
      "ends": 8901,
      "ĠalÃ©": 8902,
      "void": 8903,
      "annÃ©es": 8904,
      "ĠthÃ¨se": 8905,
      "ĠlibÃ©ration": 8906,
      "Ġsportive": 8907,
      "Ġpanne": 8908,
      "Ã©tant": 8909,
      "Ġ1889": 8910,
      "Ġart": 8911,
      "ĠBa": 8912,
      "Ġforment": 8913,
      "ĠCarlos": 8914,
      "ĠPhotographie": 8915,
      "ĠLind": 8916,
      "Ġexposition": 8917,
      "ĠðŁĽ£ï¸ı": 8918,
      "ÙĦ": 8919,
      "æº": 8920,
      "Ġcommiss": 8921,
      "polation": 8922,
      "ĠJava": 8923,
      "ĠÃīdouard": 8924,
      "ĠðŁļ¢": 8925,
      "||(": 8926,
      "fn": 8927,
      "ĠFa": 8928,
      "Ġappelle": 8929,
      "umber": 8930,
      "ĠSciences": 8931,
      "ĠendÃ©mique": 8932,
      "ciens": 8933,
      "adÃ©mie": 8934,
      "ousel": 8935,
      "ĠAuguste": 8936,
      "ĠÃ©tablissements": 8937,
      "ĠnÃ©cessaires": 8938,
      "Ġcollections": 8939,
      "Ġthermique": 8940,
      "Ġhumi": 8941,
      "Ġadministration": 8942,
      "orchestre": 8943,
      "ĠToponymie": 8944,
      "lah": 8945,
      "ĠArtist": 8946,
      "ĠspÃ©cialiste": 8947,
      "jp": 8948,
      "åľ¨": 8949,
      "amiral": 8950,
      "ĠrÃ©forme": 8951,
      "æķ°": 8952,
      "IF": 8953,
      "On": 8954,
      "Ġmy": 8955,
      "oper": 8956,
      "ĠðŁ§ĳâĢįðŁİ": 8957,
      "uta": 8958,
      "Ġmauvais": 8959,
      "Ġrelais": 8960,
      "ĠLocalisation": 8961,
      "ĠBad": 8962,
      "ĠcomplÃ©": 8963,
      "abled": 8964,
      "flow": 8965,
      "pÃ¨re": 8966,
      "Ġlun": 8967,
      "itte": 8968,
      "Ġvac": 8969,
      "Ġcroy": 8970,
      "istÃ¨re": 8971,
      "Ġespaces": 8972,
      "Ġallait": 8973,
      "Az": 8974,
      "ardins": 8975,
      "attraction": 8976,
      "adow": 8977,
      "ĠdÃ©cidÃ©": 8978,
      "hin": 8979,
      "Ġattaques": 8980,
      "ĠXIIIe": 8981,
      "Ġajout": 8982,
      "Ġnations": 8983,
      "sig": 8984,
      "Ġfaibles": 8985,
      "AndrÃ©": 8986,
      "Ġhectares": 8987,
      "mas": 8988,
      "ĠKer": 8989,
      "Ġradi": 8990,
      "conte": 8991,
      "ĠprÃ©fecture": 8992,
      "Ġmilieux": 8993,
      "Ġmodern": 8994,
      "ĠMai": 8995,
      "ĠgÃ©rer": 8996,
      "ĠGiovan": 8997,
      "DP": 8998,
      "amÃ©nagement": 8999,
      "ĠIsland": 9000,
      "âŃĲâŃĲ": 9001,
      "aÃ©roport": 9002,
      "ĠprÃ©cise": 9003,
      "ĠRÃ©gion": 9004,
      "Ġsimilaire": 9005,
      "chest": 9006,
      "Ġportent": 9007,
      "Ġoccidentale": 9008,
      "moi": 9009,
      "ĠFant": 9010,
      "Ġautonome": 9011,
      "Body": 9012,
      "dienne": 9013,
      "emark": 9014,
      "å¹": 9015,
      "Ġmass": 9016,
      "ĠvÃ©ri": 9017,
      "Ġoutils": 9018,
      "Ġclasses": 9019,
      "ĠRÃ©sumÃ©": 9020,
      "ĠJusqu": 9021,
      "ĠBus": 9022,
      "ync": 9023,
      "Ġdisparu": 9024,
      "Ġmaximale": 9025,
      "ZÃ©lande": 9026,
      "Ġliens": 9027,
      "ĠGood": 9028,
      "scroll": 9029,
      "Ġpowiat": 9030,
      "ĠVic": 9031,
      "exÃ©cu": 9032,
      "Ġget": 9033,
      "Ġrad": 9034,
      "Ġconnec": 9035,
      "ĠMand": 9036,
      "ĠKam": 9037,
      "oria": 9038,
      "Ġmyth": 9039,
      "Ġprovenant": 9040,
      "ĠSin": 9041,
      "Ġtransition": 9042,
      "mine": 9043,
      "ĠTay": 9044,
      "ĠconsÃ©quence": 9045,
      "gÃ©s": 9046,
      "ĠFour": 9047,
      "Ġusage": 9048,
      "dt": 9049,
      "chin": 9050,
      "ĠSom": 9051,
      "ĠBrig": 9052,
      "Ġsortant": 9053,
      "Ġcourses": 9054,
      "Ġmettant": 9055,
      "ĠDal": 9056,
      "ĠðŁıĽï¸ı.": 9057,
      "ĠPrincip": 9058,
      "ĠðŁıŃ": 9059,
      "Ġrecueil": 9060,
      "ĠKi": 9061,
      "ĠRub": 9062,
      "Ġnationaux": 9063,
      "Ã§u": 9064,
      "ĠÃ©lectronique": 9065,
      "rimÃ©": 9066,
      "Ġplat": 9067,
      "ĠSÃ©nat": 9068,
      "ium": 9069,
      "çİ": 9070,
      "ĠsÃ©cur": 9071,
      "Ġprovis": 9072,
      "å·¥": 9073,
      "tip": 9074,
      "ĠHav": 9075,
      "Ġvisiteurs": 9076,
      "ĠSavoie": 9077,
      "Ġbaptis": 9078,
      "ĠAcade": 9079,
      "Gu": 9080,
      "rik": 9081,
      "ortent": 9082,
      "ĠBarcel": 9083,
      "stes": 9084,
      "Ġ49": 9085,
      "ðŁĩµ": 9086,
      "ĠbÃ©nÃ©fici": 9087,
      "Ġmig": 9088,
      "ĠMak": 9089,
      "ĠHon": 9090,
      "ĠDay": 9091,
      "ĠÃīquipe": 9092,
      "Ġdonnant": 9093,
      "Ġtome": 9094,
      "001": 9095,
      "ĠÃīmile": 9096,
      "ĠgÃ©n": 9097,
      "ĠbientÃ´t": 9098,
      "ĠðŁĩ§ðŁĩª": 9099,
      "ĠTexas": 9100,
      "mÃªmes": 9101,
      "ĠFel": 9102,
      "Ġenter": 9103,
      "ĠSystem": 9104,
      "ĠðŁĩ·ðŁĩº": 9105,
      "Ġ250": 9106,
      "rine": 9107,
      "Ġconcep": 9108,
      "duits": 9109,
      "Ġ1904": 9110,
      "ĠStatistiques": 9111,
      "ĠprÃ©vu": 9112,
      "ĠimpÃ©riale": 9113,
      "Ã©difice": 9114,
      "ĠintitulÃ©e": 9115,
      "ĠdÃ©truit": 9116,
      "Ġauquel": 9117,
      "ĠIN": 9118,
      "outline": 9119,
      "Ordre": 9120,
      "Ġtab": 9121,
      "mira": 9122,
      "Ġ700": 9123,
      "æºĲ": 9124,
      "Ġlour": 9125,
      "Ġmasculin": 9126,
      "ĠÃītu": 9127,
      "ĠCharl": 9128,
      "ĠGaz": 9129,
      "ĠAngl": 9130,
      "Ġ51": 9131,
      "ĠsupplÃ©mentaires": 9132,
      "µï¸ı": 9133,
      "ĠĠĠĠĠĠĠĠĠĠĠĠ": 9134,
      "ĠðŁĵ¡": 9135,
      "Ġcomprenant": 9136,
      "bonne": 9137,
      "pan": 9138,
      "Ã¨ces": 9139,
      "ĠColombie": 9140,
      "reurs": 9141,
      "Ġrace": 9142,
      "ä¸Ń": 9143,
      "monte": 9144,
      "ĠCond": 9145,
      "ĠIm": 9146,
      "mark": 9147,
      "finition": 9148,
      "2002": 9149,
      "Ġissus": 9150,
      "ĠEnse": 9151,
      "fices": 9152,
      "ĠLiÃ¨ge": 9153,
      "Ġdessins": 9154,
      "Exception": 9155,
      "Ġmixte": 9156,
      "SM": 9157,
      "rm": 9158,
      "Ļ¨": 9159,
      "Ġmagas": 9160,
      "Ġfacilement": 9161,
      "ĠNorvÃ¨ge": 9162,
      "enis": 9163,
      "agner": 9164,
      "ĠdonnÃ©e": 9165,
      "2017": 9166,
      "ĠCameroun": 9167,
      "ual": 9168,
      "vol": 9169,
      "ĠPou": 9170,
      "ĠðŁİ¥": 9171,
      "ĠChristophe": 9172,
      "æĶ¯æĮģ": 9173,
      "ĠKaz": 9174,
      "Ġimag": 9175,
      "è¡Į": 9176,
      "à¤": 9177,
      "Ã¨ques": 9178,
      "Comp": 9179,
      "open": 9180,
      "æİ": 9181,
      "ĠvÃ©ritÃ©": 9182,
      "Ġlicence": 9183,
      "ĠMeilleure": 9184,
      "ĠHongrie": 9185,
      "ĠEugÃ¨ne": 9186,
      "bot": 9187,
      "ÃŁ": 9188,
      "Ġdange": 9189,
      "quets": 9190,
      "attle": 9191,
      "ĠðŁĩªðŁĩ¸": 9192,
      "èĩ": 9193,
      "ĠJohnson": 9194,
      "ĠLondon": 9195,
      "ĠrÃ©union": 9196,
      "ĠSun": 9197,
      "ĠNames": 9198,
      "ĠNar": 9199,
      "ift": 9200,
      "ĠExpl": 9201,
      "ĠBataille": 9202,
      "ilÃł": 9203,
      "ĠTrÃ¨s": 9204,
      "oiseau": 9205,
      "Ġentrepr": 9206,
      "ĠdÃ©lÃ©gu": 9207,
      "Ġnomme": 9208,
      "ĠScience": 9209,
      "ĠNormandie": 9210,
      "Homme": 9211,
      "Ġ==": 9212,
      "Ġcultiv": 9213,
      "ĠRoss": 9214,
      "allen": 9215,
      "ĠÃ©rig": 9216,
      "2016": 9217,
      "2003": 9218,
      "rigger": 9219,
      "ĠProm": 9220,
      "ĠÂ»).": 9221,
      "ĠProject": 9222,
      "ĠAlexander": 9223,
      "åĻ¨": 9224,
      "ç¨": 9225,
      "arth": 9226,
      "rison": 9227,
      "ĠJulien": 9228,
      "Ã©si": 9229,
      "Claude": 9230,
      "ĠAffaires": 9231,
      "Ķï¸ı": 9232,
      "Ġjustif": 9233,
      "ĠNCBI": 9234,
      "ĠFland": 9235,
      "illard": 9236,
      "Ġmour": 9237,
      "Ã©bas": 9238,
      "ĠðŁĵľ,": 9239,
      "Ġsuscepti": 9240,
      "cycl": 9241,
      "Ġcanadienne": 9242,
      "ĠLorraine": 9243,
      "agÃ©s": 9244,
      "ĠdiffusÃ©": 9245,
      "ĠDate": 9246,
      "Ġnaturelles": 9247,
      "ĠmÃ©tropolitaine": 9248,
      "ĠrÃ©fÃ©r": 9249,
      "ĠMari": 9250,
      "ĠconservÃ©": 9251,
      "ĠÃ©tapes": 9252,
      "ises": 9253,
      "ĠdÃ©gra": 9254,
      "hyd": 9255,
      "ĠâĽĵ": 9256,
      "agi": 9257,
      "Ġpeur": 9258,
      "Ġtournage": 9259,
      "ship": 9260,
      "Ã©an": 9261,
      "Ġachet": 9262,
      "lÃ©tisme": 9263,
      "ĠðŁİī": 9264,
      "Ġâı³,": 9265,
      "ĠLuis": 9266,
      "Ġ1909": 9267,
      "ĠTurquie": 9268,
      "ĠTime": 9269,
      "Ã´tel": 9270,
      "ĠCongo": 9271,
      "Ġmassif": 9272,
      "alo": 9273,
      "ĠDiscogs": 9274,
      "Ġtuer": 9275,
      "Ġgri": 9276,
      "Ġgmina": 9277,
      "Ġtableaux": 9278,
      "Ġartificielle": 9279,
      "ĠSac": 9280,
      "ĠClassi": 9281,
      "Ġchangements": 9282,
      "omique": 9283,
      "ĠSir": 9284,
      "Ġacqu": 9285,
      "contre": 9286,
      "ĠblessÃ©s": 9287,
      "iÃ¨vre": 9288,
      "Ġcommunaut": 9289,
      "Ġislam": 9290,
      "ierres": 9291,
      "ĠLigne": 9292,
      "usc": 9293,
      "Anti": 9294,
      "omorph": 9295,
      "Ġcompagn": 9296,
      "Ġactive": 9297,
      "Ġtentative": 9298,
      "ĠGeorg": 9299,
      "Irlande": 9300,
      "ection": 9301,
      "football": 9302,
      "objectif": 9303,
      "Ġtranslate": 9304,
      "ĠLouise": 9305,
      "ĠGiovanni": 9306,
      "ĠSerbie": 9307,
      "Ġstructures": 9308,
      "ĠCertaines": 9309,
      "Ġprimaire": 9310,
      "omÃ©trie": 9311,
      "ĠSig": 9312,
      "Ġfigures": 9313,
      "2019": 9314,
      "Ġapproche": 9315,
[...]
